#include "network_data.h"

ai_handle ai_network_data_weights_get(void)
{

  AI_ALIGNED(4)
  static const ai_u8 s_network_weights[ 16284 ] = {
    0xcb, 0x6c, 0xb3, 0x3e, 0x5e, 0x94, 0x11, 0xbf, 0x01, 0x5c,
    0x0d, 0xbf, 0xde, 0x4e, 0x97, 0x3e, 0xce, 0xaf, 0x76, 0xbe,
    0xa5, 0xc6, 0x17, 0xbe, 0x58, 0x05, 0x50, 0x3e, 0x5d, 0x79,
    0xf4, 0xbd, 0x6b, 0x31, 0x17, 0x3e, 0x83, 0x5e, 0x8e, 0x3e,
    0x0e, 0x92, 0x77, 0x3e, 0x90, 0x40, 0x87, 0x3e, 0x3e, 0x56,
    0xf4, 0x3d, 0x1c, 0x78, 0x07, 0x3e, 0x15, 0x12, 0x06, 0x3e,
    0x91, 0x81, 0xcd, 0xbe, 0x8a, 0x84, 0xcf, 0xbe, 0xcc, 0x85,
    0xd2, 0xbe, 0x71, 0xe9, 0x06, 0x3e, 0x8c, 0x65, 0xa0, 0xbd,
    0x72, 0xcf, 0xbb, 0xbc, 0x9f, 0xef, 0x07, 0xbe, 0xf7, 0x46,
    0x63, 0xbe, 0x25, 0xbd, 0xf9, 0xbc, 0xa9, 0x0c, 0x7a, 0x3e,
    0x5d, 0x80, 0x0e, 0x3e, 0x3b, 0xf9, 0x75, 0xbd, 0xb3, 0xeb,
    0xcb, 0xbe, 0xde, 0xe3, 0xf0, 0xbe, 0xb7, 0xe1, 0xe1, 0xbe,
    0x46, 0x37, 0x24, 0x3e, 0xf7, 0x3c, 0xad, 0xbc, 0xcd, 0x71,
    0x36, 0x3e, 0x3b, 0xd2, 0x5b, 0x3e, 0xb4, 0x17, 0x5b, 0x3e,
    0x51, 0x00, 0xa2, 0x3e, 0x45, 0x63, 0x1d, 0x3e, 0x94, 0xfb,
    0x0f, 0xbe, 0xcf, 0xed, 0xae, 0x3e, 0xe1, 0xfb, 0xa7, 0x3d,
    0xe9, 0x40, 0x58, 0xbe, 0x16, 0x76, 0x89, 0xbb, 0x22, 0x09,
    0x97, 0xbe, 0x60, 0x47, 0x04, 0xbf, 0xf6, 0xa9, 0x6d, 0x3d,
    0x55, 0xda, 0x9a, 0x3e, 0x3b, 0x10, 0xb3, 0xbd, 0x06, 0xc5,
    0x11, 0xbe, 0x95, 0xbc, 0x2f, 0x3e, 0x36, 0xb6, 0x05, 0xbe,
    0x42, 0x31, 0x65, 0xbd, 0x3f, 0x3c, 0x74, 0x3d, 0x8e, 0x2f,
    0x57, 0xbd, 0xd8, 0x71, 0xc0, 0xbd, 0xd4, 0x8c, 0xa5, 0x3d,
    0x10, 0xf9, 0x9c, 0x3e, 0x16, 0x28, 0x2e, 0x3d, 0x42, 0x5f,
    0x84, 0xbd, 0x68, 0x9e, 0xb0, 0x3c, 0x5f, 0x83, 0x9d, 0x3d,
    0x1d, 0x77, 0x30, 0xbe, 0x1c, 0x0e, 0x75, 0xbe, 0x06, 0x09,
    0x66, 0xbe, 0xa0, 0xbb, 0xbf, 0x3e, 0x85, 0xa4, 0xc6, 0x3e,
    0x61, 0xd8, 0xd3, 0x3e, 0xc2, 0x18, 0xcf, 0xbc, 0x1a, 0xf7,
    0xf1, 0x3c, 0x24, 0x17, 0xa1, 0xbd, 0x95, 0xac, 0xae, 0xbe,
    0x6b, 0x45, 0xea, 0xbe, 0x1b, 0xf7, 0xa8, 0xbe, 0x1b, 0x3f,
    0xf4, 0xbe, 0x98, 0x94, 0x0c, 0xbe, 0x65, 0x47, 0x83, 0x3d,
    0x25, 0x1f, 0x91, 0x3e, 0xba, 0x31, 0xf8, 0x3e, 0x6d, 0xee,
    0xfd, 0x3e, 0x4a, 0xb2, 0x12, 0xbf, 0x8e, 0xee, 0x8e, 0xbe,
    0x3a, 0x88, 0xdc, 0x3c, 0x2a, 0xf2, 0x16, 0x3d, 0x20, 0xdc,
    0xd8, 0x3d, 0xe6, 0x19, 0x43, 0x3d, 0x70, 0xf4, 0x85, 0x3e,
    0x87, 0x42, 0x68, 0x3e, 0x96, 0x87, 0xa7, 0x3e, 0xc5, 0x8e,
    0x31, 0xbe, 0xb4, 0xa3, 0x35, 0xbe, 0x80, 0x88, 0x3a, 0xbe,
    0xf1, 0x04, 0xe5, 0xbd, 0x9f, 0xb1, 0x51, 0xbe, 0x01, 0xd9,
    0x91, 0xbe, 0x34, 0xa4, 0x95, 0x3d, 0xaa, 0xcf, 0xd7, 0x3c,
    0xf4, 0xfb, 0x10, 0xbc, 0x1f, 0x68, 0x6d, 0x3e, 0x15, 0x84,
    0x1f, 0x3e, 0x83, 0x86, 0x9e, 0x3e, 0x8a, 0x5b, 0x48, 0xbc,
    0x97, 0x1b, 0xe7, 0xbe, 0xeb, 0xf2, 0xe6, 0x3e, 0x5f, 0xce,
    0xdf, 0xbd, 0x62, 0xcc, 0x9d, 0xbe, 0xb3, 0xc4, 0x97, 0x3e,
    0xdf, 0xc6, 0x51, 0x3e, 0xb8, 0xfe, 0x5b, 0xbe, 0x38, 0xb3,
    0x08, 0x3e, 0x41, 0x42, 0x23, 0xbe, 0x3b, 0x80, 0x63, 0xbd,
    0xfa, 0xac, 0xe3, 0xbd, 0x98, 0x72, 0xaf, 0x3c, 0xc8, 0xe2,
    0x13, 0x3d, 0x1f, 0x5f, 0xa1, 0x3d, 0xb7, 0x87, 0x54, 0x3e,
    0x33, 0x70, 0x88, 0x3d, 0xf1, 0x5a, 0x5c, 0x3e, 0x4f, 0x48,
    0xa5, 0xbc, 0x12, 0xed, 0xa7, 0x3e, 0x5d, 0xf6, 0xbe, 0x3e,
    0x16, 0xfe, 0x84, 0xbe, 0x5a, 0x2f, 0x2b, 0xbe, 0x9c, 0x84,
    0x7d, 0xbd, 0x67, 0x6e, 0xc5, 0xbe, 0x6d, 0x58, 0xd3, 0x3d,
    0x82, 0x9f, 0x8e, 0x3e, 0x97, 0x68, 0xcb, 0xbe, 0xeb, 0x67,
    0xe3, 0x3d, 0x2b, 0x05, 0x95, 0xbe, 0xfb, 0xa7, 0x07, 0x3e,
    0x42, 0x1c, 0xa2, 0x3e, 0xd8, 0x8a, 0x35, 0xbb, 0xa7, 0x89,
    0x4e, 0xbe, 0x02, 0x41, 0xeb, 0x3d, 0x8b, 0xae, 0x1a, 0xbd,
    0xa1, 0x14, 0x07, 0x3d, 0xc6, 0xde, 0xf8, 0x3d, 0x26, 0xda,
    0x97, 0x3d, 0x1b, 0x68, 0xd4, 0xbe, 0x2a, 0x4a, 0xc0, 0xbe,
    0xb2, 0xff, 0xf6, 0xbe, 0x1e, 0x2d, 0xa4, 0x3e, 0x4b, 0x07,
    0x0f, 0x3e, 0x5d, 0x90, 0xbf, 0x3e, 0x34, 0x53, 0xae, 0xbf,
    0x45, 0x00, 0xaa, 0x3c, 0x2a, 0x96, 0x35, 0xbd, 0x17, 0xe9,
    0x88, 0xbe, 0x5a, 0x1d, 0xb7, 0xbe, 0x52, 0x1c, 0x85, 0xbe,
    0xcf, 0x25, 0xc6, 0x3b, 0x49, 0x04, 0xcd, 0x3b, 0xbf, 0x47,
    0x30, 0xbe, 0xc3, 0x8f, 0xc6, 0xbe, 0x82, 0x85, 0x10, 0xbe,
    0xc0, 0x8a, 0x75, 0xbe, 0xa7, 0x8d, 0x2a, 0xbe, 0xa9, 0xca,
    0xab, 0xbe, 0x25, 0xa3, 0x83, 0xbd, 0x7f, 0x88, 0xdf, 0xbe,
    0x15, 0x9f, 0x6c, 0x3e, 0xeb, 0xfc, 0xed, 0xbd, 0x02, 0x8f,
    0x0b, 0x3d, 0xaa, 0xdc, 0xf5, 0xbc, 0x9f, 0xbf, 0x40, 0xbe,
    0x07, 0x0d, 0x09, 0xbe, 0xb3, 0xe6, 0xfe, 0xbd, 0xc3, 0x70,
    0x17, 0xbe, 0x90, 0x5b, 0xa9, 0x3c, 0x33, 0x84, 0x23, 0x3d,
    0xd3, 0xcc, 0x4a, 0x3d, 0xb2, 0x79, 0x1d, 0xbd, 0x09, 0xee,
    0x6f, 0x3d, 0x86, 0xb4, 0xbd, 0xbd, 0xab, 0x44, 0xf8, 0x3c,
    0xd9, 0x70, 0x7e, 0x3e, 0xd0, 0x7a, 0x80, 0x3e, 0xbe, 0x59,
    0xcf, 0xbd, 0x0f, 0x56, 0x02, 0x3b, 0x40, 0xdb, 0x6a, 0xbc,
    0x47, 0x54, 0x4a, 0xbe, 0x77, 0x90, 0x80, 0x3d, 0x9d, 0xb0,
    0xf0, 0xbd, 0x9c, 0x38, 0x2d, 0xbe, 0xb4, 0xcc, 0x9b, 0x3d,
    0x4c, 0x59, 0xd7, 0xbd, 0xc5, 0x26, 0x96, 0xbb, 0x1c, 0xbc,
    0x91, 0x3d, 0x54, 0x89, 0x3d, 0x3d, 0x83, 0x15, 0xe5, 0xbd,
    0xc7, 0xb1, 0x42, 0x3d, 0x56, 0x35, 0x36, 0x3e, 0xe9, 0xf3,
    0xa1, 0x3e, 0xf0, 0xbf, 0xcf, 0xbc, 0x21, 0x65, 0xce, 0x3d,
    0x0c, 0x2d, 0x8e, 0xbb, 0x95, 0x73, 0x01, 0xbe, 0x6e, 0x0c,
    0x84, 0x3d, 0xd7, 0x83, 0x9c, 0xbd, 0xfc, 0xed, 0x22, 0xbe,
    0x66, 0x30, 0x8b, 0x3d, 0xdb, 0x6c, 0xd1, 0xbd, 0x2e, 0x65,
    0x0f, 0xbb, 0x95, 0xd4, 0x3c, 0x3e, 0xe3, 0x51, 0x01, 0xbc,
    0xe9, 0x3c, 0x8e, 0xbc, 0xff, 0xca, 0xec, 0x3c, 0xd3, 0x1f,
    0x9a, 0x3e, 0x4f, 0x72, 0xf1, 0xbc, 0x93, 0x87, 0x43, 0xbd,
    0xdf, 0xf2, 0xd3, 0xbd, 0x36, 0x77, 0x24, 0xbe, 0xf1, 0x42,
    0x59, 0xbd, 0xfd, 0xd7, 0xb7, 0xbd, 0x37, 0xf5, 0x85, 0xbc,
    0xca, 0x33, 0x14, 0xbd, 0xba, 0xb2, 0xb2, 0x3c, 0xce, 0x22,
    0xb5, 0x3b, 0x43, 0x36, 0x45, 0xbc, 0x96, 0x3d, 0x2a, 0xbd,
    0x33, 0x7c, 0x62, 0xbd, 0xf6, 0x83, 0xa6, 0xbd, 0x84, 0xbe,
    0x8d, 0x3c, 0x96, 0x8a, 0xf1, 0xbd, 0xe4, 0x2e, 0x8c, 0xbd,
    0xb5, 0xdf, 0x3e, 0xbd, 0xcb, 0xce, 0x86, 0xbd, 0xc4, 0xd8,
    0x52, 0xbe, 0x70, 0x07, 0xe1, 0xbd, 0x14, 0x7e, 0x8a, 0x3d,
    0x1b, 0x92, 0x4c, 0xbd, 0x9f, 0xbf, 0x15, 0xbd, 0xa4, 0xea,
    0xbe, 0x3c, 0xe0, 0xc2, 0x3f, 0xbd, 0xef, 0xc1, 0x0f, 0xbd,
    0xa2, 0xd4, 0x3b, 0xbd, 0xfb, 0xc7, 0x9c, 0xbd, 0xf9, 0xfe,
    0x41, 0xbd, 0xfb, 0xde, 0x0d, 0xbd, 0x79, 0x49, 0xb4, 0x3d,
    0x00, 0x49, 0x94, 0x3c, 0x54, 0xc2, 0x35, 0xbd, 0x08, 0x70,
    0x70, 0x3d, 0xc7, 0x17, 0x2e, 0xbe, 0x5c, 0xed, 0x34, 0xbe,
    0xe3, 0x2a, 0x08, 0xbe, 0xc1, 0xa8, 0xda, 0xbd, 0xd2, 0x9c,
    0x6b, 0xbc, 0x04, 0xca, 0x53, 0x3e, 0x72, 0x95, 0xf2, 0x3b,
    0x3e, 0x9f, 0x63, 0xbd, 0x72, 0x6a, 0x7e, 0x3d, 0xf5, 0x21,
    0x7a, 0x3b, 0x7a, 0x2c, 0xe1, 0x3d, 0x83, 0xf9, 0xa0, 0x3c,
    0x58, 0x17, 0x0a, 0xbe, 0x48, 0xb3, 0x9f, 0xbd, 0x9e, 0x41,
    0x4a, 0xbd, 0xed, 0x41, 0x4e, 0xbd, 0x4c, 0x99, 0xee, 0xbd,
    0x16, 0xa9, 0xa3, 0x3d, 0xf0, 0xab, 0x60, 0x3d, 0x44, 0x91,
    0x61, 0x3d, 0xca, 0x36, 0x37, 0xbc, 0xd9, 0xda, 0x0b, 0xbe,
    0x03, 0x09, 0xcd, 0x3a, 0xef, 0x17, 0x3d, 0x3e, 0xcd, 0xa7,
    0x85, 0xbd, 0x54, 0xb7, 0x15, 0x3d, 0x4a, 0x5a, 0xb9, 0x3b,
    0x83, 0x18, 0xa8, 0xbd, 0x33, 0xc0, 0xb9, 0xbd, 0x27, 0x5d,
    0x33, 0xbe, 0x10, 0x27, 0xcc, 0xbc, 0xc1, 0xe5, 0xc2, 0x3d,
    0x4c, 0x4b, 0x1e, 0xbe, 0x57, 0x16, 0x93, 0x3c, 0x67, 0x43,
    0x8d, 0x3d, 0x59, 0x6e, 0xc1, 0xbd, 0x3f, 0x2f, 0x06, 0x3c,
    0xf3, 0x33, 0x87, 0xbd, 0x20, 0xd8, 0x06, 0xbe, 0x9d, 0x9b,
    0xab, 0xbd, 0x21, 0xc9, 0xe7, 0x3d, 0xa7, 0x6f, 0x4e, 0x3d,
    0x2c, 0xc8, 0xd3, 0xbd, 0xe8, 0x10, 0x07, 0x3d, 0xce, 0xc0,
    0xd5, 0x3d, 0xd7, 0x9a, 0xf0, 0xbd, 0x68, 0x4b, 0x9c, 0xbd,
    0x6d, 0x79, 0xa0, 0xbd, 0x20, 0x33, 0xad, 0xbc, 0xa8, 0xef,
    0x7a, 0x3d, 0xfa, 0x52, 0x98, 0xbc, 0xc4, 0xc9, 0x72, 0xbd,
    0x4a, 0x2b, 0x3f, 0xbd, 0xba, 0x94, 0x7b, 0xbd, 0x82, 0xd6,
    0x88, 0x3b, 0x1b, 0xe4, 0x2a, 0x3d, 0xfe, 0x46, 0xbb, 0xbd,
    0x3c, 0x69, 0x21, 0xbd, 0xb0, 0xd2, 0x20, 0x3d, 0xac, 0x6a,
    0x25, 0xbe, 0xac, 0x10, 0x2d, 0xbc, 0x70, 0xc4, 0x1a, 0x3c,
    0x8b, 0xe5, 0x25, 0x3d, 0xe9, 0x56, 0x19, 0xbe, 0xca, 0xca,
    0x96, 0xbd, 0x8a, 0xfc, 0xcb, 0xbd, 0xdb, 0x5e, 0x49, 0x3d,
    0xe9, 0x1b, 0x2c, 0xbd, 0x3c, 0xe1, 0xa6, 0xbc, 0xae, 0xec,
    0x23, 0xbe, 0xb1, 0xdb, 0x9c, 0x3c, 0x74, 0xb9, 0xa2, 0xbc,
    0x81, 0x3f, 0x72, 0xbd, 0xf3, 0x29, 0xd2, 0x3d, 0xbf, 0xb0,
    0x5f, 0xbe, 0x84, 0xaf, 0x54, 0xbe, 0x1b, 0x27, 0xe4, 0x3d,
    0x0f, 0x94, 0x98, 0xbd, 0x71, 0x81, 0x9a, 0x3c, 0xa1, 0xc8,
    0x53, 0x3d, 0xbe, 0x04, 0x30, 0xbd, 0xf7, 0xa5, 0x9f, 0xbd,
    0xd5, 0xa0, 0x7a, 0x39, 0xd0, 0xcc, 0x0a, 0xbe, 0x48, 0x00,
    0x93, 0xbc, 0x5e, 0x35, 0x38, 0xbe, 0x52, 0xc4, 0x24, 0xbd,
    0x8f, 0x38, 0x04, 0xbd, 0xbc, 0x15, 0x70, 0x3b, 0x1a, 0x38,
    0x29, 0xbd, 0xdc, 0xff, 0x40, 0xbe, 0x26, 0x88, 0x40, 0xbe,
    0x6a, 0xe9, 0x57, 0xbd, 0x03, 0x99, 0x96, 0x3c, 0x31, 0x5e,
    0xd6, 0x3c, 0xdc, 0x6c, 0xc0, 0x3c, 0x77, 0xaf, 0x15, 0xbd,
    0x67, 0x12, 0x19, 0xbe, 0x8b, 0x64, 0xa9, 0xbc, 0x22, 0x75,
    0x57, 0xbd, 0xc7, 0xa7, 0xe6, 0xbc, 0xa5, 0x91, 0x40, 0xbe,
    0x14, 0x17, 0x07, 0x3d, 0xa7, 0xc9, 0x23, 0x3d, 0xe6, 0x3f,
    0xcd, 0xbb, 0xa1, 0x4e, 0xe1, 0x3d, 0x15, 0x23, 0x93, 0xbd,
    0x53, 0xa0, 0x67, 0xbe, 0x53, 0xc2, 0x65, 0x3e, 0xc4, 0x81,
    0xa3, 0x3d, 0xa8, 0x5d, 0xbd, 0x3d, 0xd3, 0x12, 0x0c, 0xbe,
    0x9d, 0xcf, 0x3d, 0xbd, 0xb9, 0xa1, 0xf3, 0x3d, 0x39, 0xaa,
    0x02, 0xbe, 0xb8, 0x13, 0x16, 0x3e, 0x28, 0xa2, 0x6a, 0x3d,
    0x9e, 0x0f, 0xea, 0xbd, 0x19, 0x83, 0x19, 0x3d, 0x7c, 0x85,
    0x08, 0xbe, 0x53, 0xb1, 0x79, 0xbd, 0xca, 0xa7, 0x2b, 0xbd,
    0x62, 0x82, 0x26, 0xbd, 0x8f, 0x4a, 0xd8, 0xbc, 0x4d, 0x4b,
    0x96, 0xbb, 0x4e, 0xe0, 0x15, 0xbe, 0xe2, 0x42, 0xe0, 0x3c,
    0xc9, 0xb8, 0x83, 0x3d, 0xa4, 0x9b, 0x35, 0x3d, 0x24, 0xa0,
    0xca, 0x3c, 0x65, 0x93, 0xb9, 0x3c, 0x77, 0xf9, 0x33, 0xbc,
    0x97, 0x37, 0x87, 0x3c, 0xa4, 0x1d, 0x1e, 0xbe, 0x39, 0x12,
    0x1a, 0x3e, 0x75, 0xfe, 0x91, 0xbd, 0xc2, 0x3d, 0x18, 0xbe,
    0x9c, 0x35, 0x90, 0xbd, 0x5a, 0x49, 0x4e, 0x3d, 0x1f, 0x03,
    0xda, 0xbd, 0x14, 0x2c, 0xdd, 0x3d, 0x1d, 0x44, 0x70, 0x3d,
    0x5d, 0x7e, 0xb5, 0x3d, 0xa8, 0xa7, 0x79, 0xbd, 0xdd, 0x08,
    0xd6, 0xbd, 0x0a, 0xac, 0xb0, 0xbd, 0x46, 0x6e, 0x2d, 0x3d,
    0x8b, 0xf7, 0x78, 0x3c, 0xb8, 0x84, 0x68, 0x3e, 0xa8, 0x2f,
    0xac, 0xbd, 0xcb, 0xe7, 0x83, 0xbd, 0xd6, 0x15, 0x8b, 0xbd,
    0xce, 0xe1, 0x31, 0xbd, 0x89, 0xa6, 0x7e, 0x3d, 0x1b, 0x11,
    0x8c, 0xbd, 0x62, 0x88, 0x35, 0xbe, 0xb2, 0xee, 0x08, 0xbe,
    0xe5, 0xff, 0xb3, 0xbd, 0x71, 0x32, 0x05, 0xbd, 0x3e, 0x5b,
    0x7c, 0xbd, 0x61, 0xf0, 0x07, 0xbe, 0x9b, 0xbf, 0x16, 0xbd,
    0x3c, 0xc9, 0xde, 0xbd, 0x40, 0x3f, 0xbb, 0x3d, 0xa2, 0xb7,
    0xb3, 0xbc, 0x62, 0x62, 0x00, 0xbe, 0x57, 0x3a, 0x06, 0xbe,
    0x3e, 0xb4, 0x69, 0xbe, 0xf1, 0x7a, 0xd5, 0xbd, 0x3f, 0x04,
    0x29, 0xbe, 0xd5, 0xf2, 0xd2, 0xbd, 0xe6, 0x68, 0x90, 0x3b,
    0x10, 0xf1, 0xe7, 0xbd, 0xad, 0x4c, 0xc4, 0x3c, 0x39, 0x67,
    0x05, 0xbd, 0x85, 0xf5, 0x8a, 0xbc, 0xcb, 0xa7, 0xdc, 0xbd,
    0x2c, 0xb8, 0x3a, 0xbd, 0x56, 0xc8, 0x74, 0xbd, 0x9e, 0x66,
    0xd4, 0x3d, 0x7d, 0x87, 0x3a, 0xbd, 0x24, 0x6c, 0xb8, 0xbd,
    0x88, 0x7d, 0x2a, 0xbd, 0xfe, 0x5c, 0x45, 0xbe, 0x48, 0xb8,
    0x07, 0xbd, 0x13, 0x0a, 0xe8, 0xbd, 0x3a, 0x34, 0x11, 0x3c,
    0x98, 0x4e, 0xcc, 0xbd, 0x22, 0x63, 0x1c, 0xbd, 0x7c, 0x14,
    0x00, 0xbe, 0xef, 0x30, 0x85, 0xbc, 0xae, 0xf7, 0x21, 0x3d,
    0xc4, 0x7d, 0x49, 0xbe, 0xf5, 0x85, 0x3d, 0xbd, 0x61, 0x6e,
    0x96, 0xbd, 0x1d, 0xf6, 0xef, 0x3b, 0x42, 0xb9, 0x96, 0xb8,
    0x29, 0x18, 0xc3, 0xbd, 0x28, 0x42, 0x1e, 0x3d, 0xdd, 0x7d,
    0x33, 0xbe, 0xb4, 0x7a, 0x1a, 0xbd, 0x3c, 0x2d, 0x2d, 0xbe,
    0x48, 0x81, 0x9c, 0xbd, 0x83, 0xf5, 0x90, 0xbd, 0xd3, 0x02,
    0xa6, 0x3c, 0x21, 0x7e, 0x46, 0xbd, 0x52, 0x15, 0xa4, 0xbd,
    0xee, 0xde, 0xf0, 0x3d, 0xfb, 0x2f, 0xa6, 0xbd, 0x09, 0xc1,
    0xbd, 0x3d, 0x54, 0x0d, 0xcc, 0x3d, 0xaf, 0x05, 0xa1, 0x3d,
    0x76, 0x3d, 0x79, 0xbd, 0x42, 0x71, 0x39, 0x3d, 0xb3, 0x28,
    0xf6, 0xbd, 0x66, 0xa8, 0x21, 0xbe, 0x32, 0x17, 0x2f, 0x3e,
    0x43, 0x11, 0xef, 0x3c, 0xb5, 0xd7, 0x5f, 0x3c, 0x15, 0xf8,
    0x70, 0xbc, 0x6d, 0x53, 0x63, 0xbd, 0x62, 0x1a, 0xbe, 0x3d,
    0x72, 0x93, 0x93, 0xbd, 0xbc, 0xea, 0xf7, 0xbd, 0x9e, 0x93,
    0x97, 0xbd, 0x21, 0xcc, 0xee, 0x3d, 0xd0, 0xb1, 0x3f, 0x3e,
    0xfc, 0x23, 0xee, 0xbc, 0xf5, 0xaf, 0x81, 0xbd, 0x2b, 0x9f,
    0x81, 0x3c, 0x8a, 0xf6, 0xa6, 0xbd, 0x20, 0xff, 0xc3, 0xbc,
    0xc5, 0xa2, 0xd9, 0x3d, 0xf0, 0x1b, 0x05, 0xbe, 0x21, 0xc0,
    0x00, 0xbe, 0xa4, 0xb6, 0x12, 0x3e, 0x47, 0x52, 0x2d, 0xbe,
    0xb7, 0x82, 0x88, 0x3d, 0xb3, 0x63, 0x87, 0xbd, 0x76, 0x8e,
    0xcc, 0x3d, 0x2a, 0xe0, 0x16, 0xbd, 0x2b, 0xe8, 0x60, 0x3d,
    0x4b, 0xb6, 0xcc, 0xbc, 0x1d, 0xdd, 0x26, 0x3d, 0xca, 0xd4,
    0x85, 0xbd, 0x04, 0xe2, 0x95, 0xbd, 0x4a, 0xcc, 0x2f, 0xbd,
    0xa4, 0xee, 0xa4, 0xbb, 0x38, 0xdf, 0xf4, 0x3d, 0xbd, 0xcd,
    0xf4, 0xbd, 0xd8, 0x98, 0x25, 0xbe, 0x3a, 0xec, 0x61, 0x3d,
    0x2e, 0x65, 0xf4, 0xbd, 0x36, 0xe6, 0x52, 0x3e, 0x7c, 0xb7,
    0x0e, 0xbd, 0x13, 0x6e, 0xc6, 0xbc, 0xd9, 0x09, 0xa0, 0x3c,
    0x89, 0x07, 0x40, 0x3e, 0xde, 0xc8, 0xdc, 0xbd, 0xf6, 0x72,
    0x6a, 0x3d, 0x68, 0xd0, 0x04, 0xbe, 0xd4, 0x9b, 0x12, 0x3d,
    0xe0, 0x08, 0x24, 0x3d, 0xd7, 0x28, 0x15, 0x3d, 0x5e, 0x86,
    0x9d, 0xbd, 0x4f, 0xd7, 0xca, 0xbc, 0x1f, 0x72, 0x17, 0x3d,
    0x0b, 0x8a, 0x5f, 0x3d, 0x02, 0x0f, 0x13, 0x3d, 0x59, 0xdf,
    0x01, 0xbd, 0x0d, 0x45, 0x9a, 0xbd, 0xd6, 0xfd, 0x53, 0x3d,
    0xb6, 0x0b, 0x83, 0xbd, 0x17, 0xda, 0xdd, 0x3c, 0x2b, 0xf1,
    0x3f, 0x3e, 0x46, 0xb6, 0x8c, 0xbc, 0xde, 0x1f, 0xce, 0xbd,
    0x88, 0x52, 0x8f, 0x3b, 0x5a, 0x6c, 0xb3, 0xbd, 0x57, 0xac,
    0x93, 0xbd, 0xaf, 0x7b, 0xc7, 0x3d, 0x0c, 0xfc, 0x5a, 0xbc,
    0x3b, 0xc9, 0x7d, 0x3d, 0x63, 0x66, 0xe2, 0xbc, 0x8f, 0x69,
    0x35, 0xbe, 0x2d, 0xf4, 0x98, 0x3e, 0xa3, 0x8b, 0xda, 0xbd,
    0xb4, 0x3d, 0xa8, 0x3d, 0x47, 0xe1, 0x55, 0xbd, 0x07, 0x4b,
    0x55, 0xbc, 0xca, 0x19, 0x18, 0x3d, 0x6f, 0xa9, 0x12, 0x3b,
    0x78, 0x7d, 0xd8, 0xbd, 0xee, 0x27, 0x0f, 0xbe, 0x5e, 0xd9,
    0x07, 0xbe, 0x5b, 0xd5, 0xed, 0xbc, 0x53, 0xf6, 0xf8, 0xbb,
    0x97, 0x2d, 0x59, 0x3d, 0xca, 0xc3, 0xf1, 0xbd, 0x37, 0xb4,
    0xd4, 0x3d, 0xce, 0xad, 0x0d, 0x3d, 0x18, 0x7f, 0x57, 0x3d,
    0xa7, 0xa5, 0x0a, 0xbe, 0x6e, 0xfc, 0x34, 0xbd, 0xb9, 0x47,
    0x93, 0x3d, 0xd2, 0x66, 0x2e, 0x3d, 0x72, 0xda, 0x40, 0xbb,
    0x76, 0xd2, 0x0e, 0x3e, 0x89, 0x26, 0xbf, 0xbd, 0x89, 0x59,
    0x56, 0xbd, 0xe0, 0x47, 0x8d, 0xbc, 0xf1, 0x67, 0x20, 0xbd,
    0xef, 0xfe, 0x61, 0xbd, 0xbc, 0x20, 0x67, 0x3d, 0x33, 0x16,
    0x7f, 0x3d, 0x63, 0x8b, 0xac, 0xbd, 0xdd, 0x7d, 0x71, 0xbd,
    0x15, 0x10, 0xd0, 0x3d, 0x97, 0xe1, 0xf5, 0xbd, 0x76, 0xe5,
    0x04, 0xbd, 0x01, 0x41, 0x13, 0x3e, 0xfa, 0x84, 0x25, 0x3e,
    0x61, 0x00, 0x00, 0xbe, 0xf4, 0x8c, 0xa5, 0x3d, 0xf5, 0xc7,
    0x01, 0xbd, 0x7f, 0xaa, 0x76, 0xbd, 0x46, 0x58, 0x03, 0x3d,
    0xc6, 0xe5, 0x2a, 0x3d, 0x6d, 0x42, 0xb9, 0x3c, 0xc1, 0x36,
    0x3f, 0xbd, 0xef, 0xc3, 0xac, 0xbd, 0x5c, 0xfa, 0x19, 0x3e,
    0x24, 0x80, 0xc6, 0x3d, 0xac, 0x0f, 0xab, 0x3d, 0x55, 0x38,
    0x8c, 0xbc, 0x36, 0x14, 0xda, 0x3d, 0x5d, 0x04, 0xbd, 0x3d,
    0x3e, 0x84, 0x4d, 0xbd, 0x4a, 0xc7, 0x9e, 0x3d, 0x85, 0x4e,
    0x1d, 0xbc, 0x4d, 0x8f, 0x15, 0xbd, 0x7a, 0xb4, 0xc3, 0x3b,
    0x80, 0xd4, 0xd1, 0xbd, 0xf9, 0x28, 0x06, 0x3e, 0x41, 0x75,
    0xc3, 0x3d, 0x7d, 0x5a, 0x20, 0x3e, 0xc3, 0xbf, 0xb2, 0xbd,
    0x99, 0x51, 0x29, 0x3d, 0xf4, 0x32, 0x3f, 0xbd, 0x04, 0xe9,
    0xcb, 0x3e, 0xf0, 0xa6, 0x9c, 0xbd, 0xbd, 0x2d, 0xaf, 0x3d,
    0xf7, 0x7f, 0x4d, 0x3e, 0x35, 0x0e, 0x97, 0xbc, 0xb5, 0x79,
    0x19, 0xbd, 0xd9, 0x55, 0x9a, 0xbd, 0xeb, 0xe9, 0xbe, 0xbd,
    0xa1, 0xc3, 0xa8, 0xbd, 0x65, 0x14, 0x80, 0xbd, 0xd3, 0x0d,
    0x08, 0xbd, 0xd7, 0x3b, 0x22, 0x3e, 0x88, 0x00, 0x67, 0xbd,
    0x5a, 0xdd, 0xbb, 0xbd, 0x8c, 0xff, 0x1f, 0x3d, 0x10, 0x73,
    0xe2, 0xbd, 0x7b, 0x54, 0xe5, 0x3e, 0xbc, 0x2d, 0x0c, 0xbe,
    0xeb, 0x3e, 0x40, 0xbd, 0xba, 0xdb, 0x1a, 0xbc, 0xa2, 0x91,
    0x5b, 0x3d, 0x4d, 0xc7, 0xe0, 0x3c, 0xc0, 0xf7, 0x93, 0xbd,
    0x38, 0x5e, 0xb6, 0xbd, 0x77, 0x03, 0x82, 0x3d, 0x5b, 0xe7,
    0xdf, 0xbd, 0x9f, 0x21, 0x2e, 0x3c, 0x48, 0x2b, 0x4e, 0xbd,
    0xf3, 0x47, 0xf7, 0xba, 0x1e, 0x03, 0x17, 0xbe, 0x06, 0x7b,
    0xcc, 0xbc, 0x05, 0x29, 0x95, 0xbd, 0x3e, 0xaa, 0xc2, 0x3e,
    0x2f, 0x5d, 0xa2, 0xbd, 0x0b, 0xb1, 0xf0, 0xbc, 0x89, 0x7c,
    0x90, 0x3d, 0x7b, 0xfe, 0xd3, 0x3c, 0x14, 0xfc, 0x56, 0xbd,
    0x4e, 0xd7, 0xcd, 0x3c, 0x34, 0x19, 0xad, 0xbd, 0x3b, 0xa9,
    0x81, 0x3c, 0xa7, 0x0b, 0xbc, 0xbd, 0x69, 0x1f, 0x61, 0xbd,
    0x33, 0x36, 0x38, 0x3e, 0xcf, 0xdc, 0x8e, 0x3a, 0x85, 0x35,
    0x42, 0x3d, 0x25, 0xf9, 0x2d, 0x3e, 0x17, 0xbe, 0xcd, 0xbd,
    0x51, 0xca, 0x59, 0xbd, 0xa2, 0xd3, 0x42, 0xbe, 0x12, 0x44,
    0x7b, 0x3c, 0xcc, 0x79, 0x88, 0xbd, 0x8d, 0xeb, 0xc7, 0xbc,
    0x7d, 0x2d, 0xbc, 0x3d, 0x2f, 0x5e, 0xc8, 0xbc, 0x09, 0x3b,
    0x2f, 0xbe, 0xc6, 0x23, 0x0f, 0xbe, 0x35, 0xb8, 0x03, 0xbd,
    0x41, 0xe1, 0x0d, 0x3e, 0x47, 0x5e, 0x6c, 0xbd, 0x1c, 0xfd,
    0xfd, 0x3c, 0xeb, 0xeb, 0x1a, 0xbe, 0x78, 0xe0, 0xe3, 0x3b,
    0xe2, 0x2e, 0x9f, 0xbd, 0xe8, 0xe3, 0x15, 0x3e, 0xb7, 0x3f,
    0x6e, 0xbe, 0xbf, 0x1b, 0x09, 0xbe, 0x5a, 0x87, 0x75, 0x3d,
    0x8a, 0xca, 0x82, 0xbd, 0xc1, 0xf9, 0x37, 0xbd, 0x9a, 0x4b,
    0xb6, 0xbd, 0x69, 0x25, 0x40, 0xbe, 0x04, 0x10, 0x9d, 0xbd,
    0x19, 0x16, 0x89, 0xbd, 0x12, 0x76, 0x08, 0x3d, 0xfa, 0x14,
    0xdc, 0x3c, 0x1b, 0x97, 0x55, 0x3d, 0xb8, 0xd3, 0xd1, 0xbd,
    0x68, 0x9d, 0xa3, 0x3c, 0x2e, 0xcd, 0xd1, 0xbd, 0x1f, 0x32,
    0x08, 0xbe, 0xbe, 0x49, 0x58, 0xbe, 0xec, 0x83, 0x1d, 0xbe,
    0x10, 0xaa, 0x91, 0x3b, 0xaa, 0x66, 0xfb, 0x3c, 0xe4, 0x5c,
    0x9b, 0x3c, 0x15, 0x65, 0x83, 0xbd, 0xc6, 0xbe, 0x4c, 0xbe,
    0xd8, 0x4b, 0xa4, 0xbd, 0x7b, 0x9b, 0x65, 0xbd, 0x8a, 0xfc,
    0xc3, 0x3d, 0x4c, 0x82, 0x9a, 0xbb, 0x1c, 0x94, 0xc3, 0x3d,
    0x4c, 0x3f, 0x66, 0xbd, 0xb8, 0xef, 0x9e, 0x3d, 0x68, 0x52,
    0x04, 0x3d, 0x92, 0x97, 0x38, 0x3d, 0x6f, 0x98, 0xe5, 0xbc,
    0x3f, 0x3b, 0xb1, 0xbd, 0xd9, 0x49, 0x36, 0x3d, 0x4f, 0x0f,
    0x9f, 0xbd, 0x53, 0x47, 0x14, 0x3d, 0x25, 0xf1, 0x33, 0xba,
    0xb5, 0xc3, 0xa9, 0xbc, 0x98, 0x08, 0xe4, 0xbd, 0x26, 0x35,
    0xa8, 0x3d, 0xeb, 0x3a, 0x83, 0x3d, 0xe5, 0x06, 0x39, 0xbd,
    0x3d, 0x7d, 0x10, 0xbc, 0x37, 0x05, 0xc8, 0x3d, 0x0b, 0x19,
    0x26, 0xbe, 0xb8, 0x50, 0x96, 0x3d, 0x68, 0x59, 0x3a, 0x3d,
    0xc2, 0xe9, 0xaa, 0xbc, 0x2d, 0x03, 0x04, 0xbd, 0xd1, 0x8b,
    0xeb, 0x3d, 0xe7, 0x5a, 0x9f, 0x3c, 0x21, 0xc6, 0x03, 0xbe,
    0x0e, 0x8d, 0x01, 0xbe, 0x07, 0x81, 0x2c, 0x3c, 0x04, 0xf6,
    0x98, 0xbd, 0x9b, 0x78, 0x08, 0x3e, 0x37, 0x80, 0xde, 0xbd,
    0xd7, 0x41, 0xbd, 0xbd, 0x76, 0xfa, 0x1e, 0x3e, 0x32, 0x6a,
    0x71, 0x3c, 0xd2, 0xec, 0x39, 0xbd, 0x78, 0x07, 0xc5, 0x3d,
    0xea, 0x5f, 0x98, 0xbd, 0x5c, 0x1b, 0x2e, 0xbc, 0x5e, 0xe2,
    0x25, 0xbd, 0x77, 0x79, 0x4a, 0xbd, 0xf0, 0x8c, 0x8e, 0x3c,
    0x65, 0x09, 0xa3, 0x3d, 0xf6, 0x69, 0x08, 0xbc, 0x67, 0x40,
    0xa6, 0x3c, 0x4d, 0x8d, 0x03, 0xbd, 0x08, 0xdb, 0x54, 0x3c,
    0x5d, 0xcc, 0x08, 0x3e, 0xe2, 0x34, 0xf9, 0xbb, 0x8f, 0x80,
    0xaf, 0xbb, 0xc0, 0x39, 0x7d, 0x3d, 0x56, 0x52, 0x02, 0xbe,
    0xc3, 0xc2, 0x28, 0x3e, 0xf5, 0xe6, 0xd3, 0x3c, 0xc3, 0x78,
    0xd8, 0xbc, 0x6f, 0x88, 0x24, 0x3d, 0x85, 0xcd, 0xa6, 0x3d,
    0x2a, 0x54, 0x43, 0xbe, 0xee, 0x4c, 0x23, 0xbd, 0x8e, 0x57,
    0x17, 0xbe, 0x29, 0x2d, 0x2c, 0xbe, 0x65, 0xfa, 0x25, 0xbd,
    0x7c, 0xee, 0xc4, 0x3c, 0x51, 0x3b, 0x7d, 0x3d, 0x5e, 0x1b,
    0x9c, 0x3d, 0x4e, 0x5d, 0xdf, 0x3d, 0x0e, 0x38, 0x2b, 0xbe,
    0x93, 0xd8, 0x4c, 0xbd, 0x36, 0x38, 0xa7, 0x3e, 0xe4, 0x2d,
    0xa1, 0x3e, 0x4e, 0xd0, 0x99, 0xbd, 0x1d, 0xfe, 0x1a, 0x3d,
    0x3b, 0xa6, 0x8e, 0x3d, 0xcd, 0x2d, 0xb7, 0xbd, 0xe9, 0x53,
    0x65, 0x3c, 0xe4, 0xb0, 0x5f, 0xbe, 0xa3, 0xc2, 0x1f, 0xbe,
    0x33, 0x2c, 0x83, 0x3d, 0x17, 0xe0, 0xdf, 0x3d, 0xc2, 0xab,
    0xba, 0x3c, 0x70, 0xb2, 0xe6, 0x3d, 0xe7, 0x10, 0xb9, 0xbb,
    0x16, 0xc7, 0xd4, 0xbd, 0x4b, 0x6e, 0x1e, 0xbd, 0xee, 0xb5,
    0x7d, 0x3e, 0x6b, 0x44, 0xa2, 0x3e, 0xa9, 0xfe, 0x9b, 0xbd,
    0xf5, 0xc5, 0x45, 0x3e, 0xf8, 0xcf, 0x04, 0x3d, 0x45, 0xaa,
    0x54, 0xbd, 0xd8, 0x32, 0x4c, 0xbd, 0x26, 0x02, 0x51, 0xbe,
    0xf5, 0xdb, 0x01, 0xbe, 0xe6, 0x16, 0x2c, 0x3d, 0xf3, 0x9c,
    0x25, 0x3c, 0x83, 0xea, 0x5a, 0x3d, 0x04, 0x30, 0x51, 0x3c,
    0x4c, 0xbb, 0xfd, 0x3a, 0x7d, 0x69, 0xa7, 0xbd, 0x16, 0xdf,
    0xab, 0x3c, 0x77, 0x40, 0xe9, 0x3d, 0x64, 0xba, 0xc2, 0xbd,
    0x44, 0x6b, 0x05, 0x3d, 0x4e, 0x7e, 0x05, 0x3e, 0xc8, 0x63,
    0xab, 0xbd, 0xee, 0x74, 0x15, 0xbd, 0x02, 0x2e, 0x70, 0xbc,
    0x3a, 0xa1, 0x2c, 0xbe, 0x98, 0x1b, 0xb7, 0x3c, 0x38, 0xf2,
    0xea, 0xbb, 0xf1, 0x84, 0x83, 0x3d, 0xab, 0x60, 0x08, 0xbd,
    0xdb, 0x5b, 0xf4, 0xbd, 0xf3, 0x75, 0xe3, 0xbd, 0x9d, 0x9c,
    0xf4, 0x3b, 0x29, 0xe4, 0xa3, 0xbd, 0x56, 0xd4, 0x84, 0xbd,
    0x7d, 0x58, 0x0a, 0xbd, 0xdb, 0x2e, 0xac, 0x3b, 0x6a, 0x54,
    0x4b, 0x3d, 0x32, 0x11, 0x26, 0xbe, 0x21, 0xb3, 0x01, 0xbe,
    0xf5, 0xb3, 0x89, 0x3d, 0xeb, 0x24, 0x11, 0xbe, 0x4e, 0x79,
    0xed, 0x3c, 0x5a, 0x79, 0x84, 0xbd, 0x39, 0x62, 0x05, 0x3b,
    0xe1, 0x82, 0x2b, 0xbd, 0x6a, 0xa8, 0x22, 0xbd, 0x09, 0x9d,
    0x07, 0xbe, 0xa1, 0x3a, 0x0d, 0x3d, 0xd8, 0x57, 0xec, 0xbd,
    0xc4, 0xde, 0xe1, 0xbd, 0x5b, 0x38, 0x80, 0x3c, 0x52, 0x44,
    0xf9, 0x3c, 0x42, 0xa4, 0x88, 0xbd, 0xa6, 0xbf, 0xf8, 0xbc,
    0x96, 0x45, 0x1c, 0xbe, 0x42, 0x2d, 0x4e, 0xbd, 0x52, 0x84,
    0x3b, 0xbd, 0x4f, 0x4b, 0xfc, 0x3a, 0x2e, 0xc0, 0x05, 0x3e,
    0x98, 0xf9, 0x92, 0x3d, 0xac, 0x41, 0x94, 0xbd, 0xb1, 0xd0,
    0xf7, 0x3c, 0x6d, 0x4b, 0xda, 0xbb, 0x8a, 0xb2, 0x11, 0x3e,
    0x58, 0x76, 0x86, 0xbd, 0x28, 0xd4, 0x21, 0xbb, 0xea, 0xbf,
    0xac, 0xbc, 0x60, 0xa8, 0x5a, 0x3d, 0x78, 0x4f, 0x2a, 0x3e,
    0x70, 0xc8, 0x13, 0x3d, 0x2b, 0x35, 0xdf, 0x3c, 0x79, 0xe6,
    0xb6, 0xbd, 0x4f, 0x1c, 0x4e, 0x3b, 0xf2, 0xcd, 0x48, 0x3d,
    0x05, 0x57, 0x82, 0x3d, 0x53, 0x70, 0x22, 0x3d, 0xbc, 0xfd,
    0xd2, 0x3d, 0x3c, 0xd6, 0x9d, 0xbc, 0xa8, 0xa7, 0x98, 0x3d,
    0x7c, 0x17, 0x94, 0x3c, 0xa5, 0x9f, 0x60, 0x3c, 0x62, 0xf0,
    0xdd, 0x3d, 0x3d, 0xc2, 0x90, 0xbc, 0x85, 0xac, 0x2d, 0x3d,
    0xa4, 0xd9, 0xd0, 0xbd, 0x82, 0xa5, 0x13, 0x3e, 0xcc, 0x34,
    0x52, 0x3d, 0xe9, 0xc3, 0x67, 0xbd, 0x72, 0xb9, 0xe3, 0x3c,
    0xb3, 0xc2, 0x79, 0xbc, 0x1d, 0xf9, 0x08, 0xbd, 0x8f, 0x24,
    0x44, 0x3d, 0xea, 0x0a, 0xc2, 0xbc, 0xbd, 0x3e, 0x0c, 0x3d,
    0x41, 0x2b, 0xc3, 0x3c, 0x64, 0xb3, 0x46, 0xbd, 0x81, 0xfe,
    0x7c, 0xbc, 0x26, 0xa2, 0x01, 0x3e, 0x0f, 0xf4, 0xe9, 0xbd,
    0xee, 0xe2, 0xc7, 0x3c, 0x36, 0xc5, 0xfd, 0x3b, 0x34, 0x02,
    0xfd, 0x3d, 0xf7, 0x68, 0xcd, 0xbc, 0x34, 0x7a, 0xa5, 0x39,
    0x97, 0x88, 0xe2, 0x3d, 0x7b, 0x6e, 0xc2, 0x3d, 0x73, 0x30,
    0xa4, 0x3d, 0x75, 0x69, 0x75, 0xbd, 0xd3, 0x76, 0x54, 0x3d,
    0x03, 0x60, 0x30, 0xbd, 0x6e, 0xd4, 0x38, 0x3a, 0x47, 0x63,
    0xa5, 0x3c, 0xd1, 0x26, 0x97, 0x3d, 0x97, 0x44, 0x28, 0xbd,
    0xa6, 0x51, 0xd8, 0x3d, 0x13, 0x05, 0xf3, 0xbd, 0xb1, 0xa2,
    0xba, 0xbd, 0xbc, 0x4c, 0x8f, 0xbc, 0x78, 0x36, 0x06, 0x3d,
    0xf2, 0x89, 0x2d, 0x3e, 0x44, 0xbe, 0xae, 0xbc, 0x0f, 0x88,
    0xbf, 0xbd, 0x58, 0x65, 0x13, 0x3d, 0x46, 0x4c, 0xc1, 0x3c,
    0xfe, 0xa8, 0x38, 0xbe, 0x98, 0x23, 0x63, 0x3e, 0x1a, 0x0c,
    0x42, 0xbe, 0x13, 0x81, 0x92, 0x3d, 0xab, 0xfe, 0xc3, 0x3c,
    0x99, 0xee, 0xc2, 0xbd, 0xf3, 0x88, 0x20, 0xbb, 0x89, 0xca,
    0xc5, 0xbd, 0x57, 0x9c, 0xd3, 0xbd, 0xdd, 0x1e, 0x59, 0xbd,
    0x9c, 0x67, 0xa2, 0x3d, 0x5f, 0x46, 0x0f, 0x3d, 0x02, 0x34,
    0xfe, 0x3d, 0x97, 0x50, 0xb7, 0xbd, 0x86, 0x13, 0x16, 0x3d,
    0xa5, 0x0a, 0xe9, 0xbd, 0x05, 0xcf, 0x12, 0xbe, 0x96, 0x28,
    0x40, 0x3e, 0xdb, 0xf9, 0xc7, 0xbd, 0x08, 0xf3, 0xde, 0xbc,
    0x35, 0x2c, 0x66, 0x3e, 0x02, 0x87, 0x04, 0xbe, 0x2d, 0x3e,
    0x0f, 0x3d, 0x9c, 0xf5, 0x0c, 0xbd, 0x8a, 0x57, 0xe6, 0x3b,
    0x41, 0x81, 0x45, 0xbd, 0x24, 0xe3, 0xea, 0x3d, 0x4b, 0x85,
    0x35, 0xbc, 0x30, 0x45, 0x50, 0xbb, 0x49, 0x25, 0xcc, 0xbd,
    0x54, 0x8e, 0xbc, 0x3c, 0xa4, 0x69, 0x31, 0xbe, 0x3c, 0xe8,
    0x4b, 0xbe, 0xee, 0xbc, 0x93, 0x3e, 0xf5, 0xf4, 0x8d, 0xbd,
    0x3e, 0x2e, 0xe8, 0xbb, 0xf5, 0x2f, 0x89, 0x3d, 0x01, 0x91,
    0xae, 0xbd, 0x08, 0x6b, 0xfe, 0xbd, 0x31, 0xad, 0x29, 0xbe,
    0xf2, 0xa7, 0x82, 0xbd, 0x67, 0xe4, 0x4d, 0xbd, 0x69, 0x3d,
    0x12, 0x3d, 0x4d, 0xbc, 0x09, 0x3e, 0x37, 0x3c, 0x09, 0x3b,
    0x10, 0xbc, 0x54, 0xbe, 0xaa, 0xf8, 0xe4, 0xbd, 0x35, 0xac,
    0x30, 0xbe, 0xf0, 0xe4, 0xf5, 0xbd, 0xb8, 0x7f, 0x23, 0x3e,
    0x17, 0x90, 0x0a, 0xbe, 0xc6, 0x2a, 0x50, 0xbd, 0x38, 0xc1,
    0x40, 0xba, 0x85, 0x72, 0x17, 0xbc, 0x78, 0xda, 0xc0, 0xbd,
    0xea, 0x2c, 0x1a, 0xbe, 0x24, 0xf5, 0x40, 0xbd, 0xfb, 0x9b,
    0x6a, 0xbd, 0x75, 0xc2, 0x3c, 0x3b, 0xa6, 0x86, 0xe3, 0xbd,
    0xe8, 0x32, 0xff, 0x3c, 0xcf, 0x82, 0x38, 0xbe, 0x92, 0xbe,
    0xe4, 0x3d, 0x7b, 0xc0, 0x88, 0xbd, 0xd1, 0x27, 0x0d, 0xbe,
    0x23, 0x52, 0x98, 0xbd, 0x73, 0xf4, 0x24, 0xbd, 0xf0, 0xbd,
    0xa5, 0xbd, 0xa4, 0x21, 0xc9, 0x3d, 0xc6, 0x96, 0x20, 0xbe,
    0xab, 0x2e, 0x44, 0x3e, 0xa4, 0x2c, 0x17, 0xbe, 0x4f, 0x4e,
    0xd4, 0xbd, 0x5f, 0x71, 0xab, 0x3d, 0xbd, 0x08, 0x82, 0xbc,
    0x97, 0x68, 0x09, 0x3e, 0xfd, 0x9c, 0xd8, 0xbd, 0x3c, 0xc5,
    0x60, 0xbe, 0xea, 0x19, 0x8d, 0xbd, 0x16, 0xea, 0x35, 0xbe,
    0x8f, 0x90, 0xe6, 0xbd, 0x58, 0x5d, 0xe1, 0x3b, 0x49, 0x75,
    0xed, 0xbd, 0x92, 0xa3, 0xc8, 0x3d, 0x85, 0xf4, 0xcc, 0x3c,
    0x5d, 0x0e, 0x13, 0xbe, 0x28, 0x8e, 0xb0, 0x3d, 0x1c, 0x80,
    0x8e, 0xbe, 0xce, 0x40, 0x76, 0xbc, 0xaa, 0x79, 0xf0, 0xbc,
    0x9a, 0xef, 0x12, 0xbe, 0xaa, 0x79, 0x04, 0x3e, 0x39, 0x13,
    0x24, 0xbe, 0xf6, 0x7b, 0x85, 0xbe, 0xbe, 0xdd, 0xd8, 0xbd,
    0x75, 0x4e, 0x03, 0xbe, 0xae, 0xd5, 0xec, 0x3d, 0x35, 0xa3,
    0xeb, 0x3d, 0x84, 0x76, 0x2f, 0x3e, 0x75, 0xe9, 0xaa, 0x3d,
    0xca, 0x20, 0x3e, 0xbb, 0x97, 0x70, 0x23, 0x3c, 0xe8, 0xc9,
    0x33, 0x3b, 0x08, 0xdd, 0x96, 0xbe, 0x57, 0x9e, 0x7f, 0xbd,
    0x20, 0xeb, 0xed, 0x3c, 0x89, 0x15, 0xfe, 0xbd, 0xab, 0xdd,
    0x0d, 0xbe, 0x97, 0xbc, 0x36, 0xbe, 0x1b, 0x9d, 0x6d, 0xbe,
    0x25, 0x8e, 0xc5, 0xbd, 0x95, 0x0c, 0xbc, 0xbd, 0x7d, 0x1b,
    0x54, 0x3e, 0xc4, 0xea, 0x89, 0x3d, 0x72, 0x96, 0xd8, 0xbc,
    0xf5, 0xc1, 0x97, 0xbd, 0xa3, 0x27, 0x1f, 0xbd, 0xb8, 0x1f,
    0x17, 0xbd, 0x80, 0x2a, 0xda, 0xbd, 0xa6, 0x52, 0x8d, 0xbe,
    0xba, 0x61, 0x9e, 0x3d, 0xdd, 0x54, 0xb2, 0xbd, 0xb3, 0x1b,
    0x0d, 0x3c, 0x4a, 0x2e, 0x67, 0xbd, 0x8e, 0x17, 0x96, 0xbd,
    0x95, 0xbb, 0x91, 0xbe, 0xae, 0xe7, 0x39, 0xbd, 0x48, 0x4c,
    0x9c, 0xbd, 0xff, 0x8c, 0xd2, 0x3d, 0xd0, 0x4d, 0x23, 0xbd,
    0xc6, 0x02, 0x95, 0x3b, 0x67, 0xe3, 0xec, 0xbc, 0xfb, 0x71,
    0x00, 0xbd, 0x1b, 0xd0, 0x22, 0xbe, 0x52, 0xe5, 0x11, 0xbe,
    0x5f, 0x2d, 0x3a, 0x3c, 0xe2, 0x22, 0x7a, 0xbd, 0x7d, 0x71,
    0xe2, 0xbc, 0xfc, 0xd8, 0x24, 0xbe, 0xaf, 0xb8, 0x87, 0xbd,
    0x78, 0xea, 0x6e, 0xbd, 0xfa, 0x85, 0x1b, 0x3c, 0xfc, 0x76,
    0x53, 0xbe, 0xa6, 0x50, 0x51, 0x3b, 0x76, 0x80, 0x1b, 0xbe,
    0xf3, 0x02, 0x57, 0xbd, 0xe4, 0xf7, 0x21, 0xbd, 0x5e, 0x9f,
    0x9d, 0xbd, 0x56, 0xb5, 0x02, 0xbe, 0xb3, 0x64, 0xab, 0x3b,
    0x4f, 0x19, 0xd1, 0xbb, 0xc2, 0x35, 0xeb, 0xbc, 0x69, 0x06,
    0x33, 0xbe, 0x3b, 0x75, 0xc2, 0xbd, 0x36, 0x8a, 0x37, 0xbe,
    0x3d, 0x45, 0xaf, 0x3d, 0x9a, 0x53, 0x64, 0xbd, 0x41, 0xc2,
    0x7f, 0x3c, 0xa3, 0x84, 0x4a, 0xbe, 0xed, 0xba, 0x05, 0x3d,
    0x3a, 0xf1, 0x3a, 0xbc, 0xfa, 0x05, 0xc8, 0xbd, 0xf4, 0xf5,
    0xf7, 0xbd, 0xe4, 0x12, 0xa3, 0xbd, 0x3e, 0x07, 0x30, 0xbe,
    0x2f, 0x62, 0x0f, 0xbe, 0x3a, 0x4b, 0xa5, 0x3c, 0xb9, 0xf5,
    0x3b, 0xbb, 0xdf, 0x9f, 0x0b, 0xbe, 0x2b, 0xce, 0xbf, 0xbd,
    0x2b, 0xbf, 0x05, 0xbd, 0x9f, 0x7b, 0xd9, 0x3b, 0x53, 0x5e,
    0xb3, 0xbd, 0xb0, 0x92, 0x9a, 0xbc, 0x94, 0xc5, 0x67, 0xbe,
    0x2a, 0x2f, 0x01, 0x3d, 0xb2, 0xb4, 0xb8, 0xbd, 0x7e, 0x18,
    0x23, 0xbd, 0x3f, 0x09, 0xae, 0xbd, 0x91, 0x5e, 0xcd, 0xbd,
    0xee, 0xcb, 0x50, 0xbc, 0x7e, 0x37, 0xec, 0xbd, 0x35, 0x82,
    0xef, 0x3d, 0x86, 0xcb, 0x9c, 0xbd, 0xca, 0x73, 0x1b, 0xbe,
    0x49, 0x51, 0x18, 0xbe, 0x8b, 0x6d, 0xdd, 0xbd, 0xf1, 0xb5,
    0x24, 0x3d, 0xf7, 0x18, 0x32, 0x3c, 0x19, 0xd4, 0xfe, 0xbd,
    0x0f, 0x77, 0x3c, 0xbe, 0x15, 0x03, 0xac, 0xbd, 0xf6, 0xb4,
    0xbc, 0xbd, 0x57, 0x1f, 0x08, 0xbe, 0xb5, 0x79, 0x5f, 0xbd,
    0x68, 0xd0, 0x0a, 0xbe, 0x2e, 0xd8, 0x18, 0xbe, 0x9e, 0x61,
    0x32, 0x3e, 0xe8, 0x9c, 0x15, 0x3d, 0xc8, 0x99, 0x5c, 0xbd,
    0xd8, 0x55, 0x3c, 0xbd, 0x09, 0xb4, 0x40, 0xbe, 0x22, 0xb4,
    0x90, 0xbd, 0xa5, 0x78, 0xdb, 0x3d, 0x23, 0xba, 0xd5, 0xbd,
    0x39, 0xf7, 0xc1, 0xbd, 0xaf, 0xec, 0x77, 0xbe, 0xc9, 0xb3,
    0x79, 0xbd, 0xa0, 0xae, 0x79, 0xbd, 0x99, 0xb6, 0x90, 0x3b,
    0x9c, 0x67, 0x77, 0x3d, 0xec, 0x3e, 0x31, 0xbe, 0xa0, 0x3a,
    0xa6, 0xbd, 0xad, 0x96, 0x02, 0x3e, 0xa7, 0xcc, 0x83, 0xbd,
    0xa9, 0xd4, 0xe8, 0xbd, 0x9e, 0xc7, 0x33, 0x3d, 0xd1, 0xdc,
    0xf4, 0xbd, 0x30, 0xb9, 0xd3, 0xbd, 0xd2, 0x71, 0x84, 0x3d,
    0x20, 0x4a, 0x28, 0xbe, 0xc1, 0xcd, 0x08, 0xbe, 0x79, 0x1f,
    0x94, 0xbe, 0x70, 0xcb, 0xaf, 0x3d, 0x8c, 0xea, 0x24, 0x3d,
    0x83, 0xce, 0x29, 0xbd, 0x70, 0x17, 0x8e, 0x3c, 0x9f, 0x8d,
    0xb7, 0xbd, 0x54, 0x17, 0xf3, 0xbd, 0x44, 0xbd, 0x57, 0x3d,
    0x64, 0x5c, 0xc8, 0xbb, 0xee, 0xb0, 0x74, 0xbc, 0x61, 0xbd,
    0xde, 0x3d, 0xfe, 0x01, 0xf0, 0x3d, 0xdc, 0x83, 0x22, 0xbe,
    0xf1, 0xbf, 0xf3, 0xbd, 0x20, 0xd2, 0x0d, 0xbc, 0x1e, 0xfb,
    0x51, 0xbd, 0x3e, 0x5c, 0x2b, 0xbe, 0x6a, 0x26, 0xa4, 0x3c,
    0x64, 0x25, 0xcf, 0xbb, 0xfd, 0xbe, 0xd1, 0xbd, 0x43, 0x52,
    0x72, 0xbc, 0xe3, 0x69, 0xe7, 0xbd, 0x51, 0x82, 0x83, 0x3c,
    0x79, 0xce, 0xa1, 0xbd, 0x30, 0x32, 0x18, 0x3b, 0xb0, 0xd9,
    0xe7, 0xbc, 0x63, 0xc3, 0x1d, 0xbe, 0x77, 0x12, 0x8c, 0x3d,
    0x16, 0x7d, 0x66, 0x3c, 0xae, 0x5b, 0xb4, 0xbd, 0x72, 0xa9,
    0xe5, 0xbc, 0x29, 0xfe, 0x5e, 0xbd, 0x4f, 0x43, 0x29, 0xbe,
    0xca, 0x50, 0x6b, 0xbd, 0x63, 0xa3, 0x88, 0x3d, 0xeb, 0xb6,
    0x8a, 0xbd, 0x68, 0x7a, 0xeb, 0x3c, 0x70, 0x04, 0x1f, 0xbe,
    0x52, 0xfe, 0x0e, 0xbd, 0x72, 0xb7, 0x6a, 0x3d, 0x9d, 0xdf,
    0x03, 0x3d, 0x0e, 0xf2, 0xed, 0xbc, 0xad, 0x95, 0xb6, 0xbd,
    0x4e, 0x30, 0xef, 0x3d, 0x7a, 0xf8, 0x1f, 0xbe, 0xb0, 0x8d,
    0x14, 0x3b, 0xae, 0x85, 0x3e, 0xbe, 0x85, 0xf5, 0x61, 0xbd,
    0x33, 0x28, 0xdb, 0xbd, 0x9f, 0x7c, 0x07, 0x3e, 0xac, 0x7d,
    0x21, 0x3d, 0xad, 0xdf, 0x3f, 0xbe, 0x22, 0xa1, 0xb8, 0x3d,
    0x04, 0x6e, 0x37, 0xbd, 0xaa, 0x1e, 0x0e, 0xbe, 0x3a, 0x99,
    0x4b, 0x3e, 0x9f, 0x7d, 0x0f, 0xbe, 0xe3, 0x51, 0x0e, 0x3d,
    0xe7, 0x28, 0xc5, 0x3d, 0xde, 0xca, 0x05, 0xbe, 0x9b, 0xbc,
    0xa7, 0xbd, 0xfc, 0x8c, 0x24, 0xbe, 0xd6, 0xff, 0x99, 0xbc,
    0xc7, 0x95, 0x2b, 0x3d, 0x08, 0xeb, 0xd0, 0xbd, 0x51, 0xb6,
    0xa8, 0xbd, 0xeb, 0x2d, 0x47, 0xbe, 0xfb, 0x76, 0x45, 0xbe,
    0x27, 0x5c, 0x20, 0xbe, 0x49, 0x93, 0x17, 0xbe, 0xf2, 0x65,
    0xb4, 0xbd, 0x86, 0xff, 0xb9, 0x3d, 0x8f, 0xab, 0x5e, 0xbe,
    0x4e, 0x13, 0x03, 0x3d, 0xbf, 0xc2, 0xfc, 0xbd, 0x34, 0xd5,
    0xc2, 0xbd, 0x65, 0x94, 0xa2, 0xbd, 0x0a, 0x41, 0x6f, 0xbd,
    0x2c, 0xc5, 0x28, 0xbc, 0x59, 0x28, 0xa4, 0x3c, 0xdc, 0x2d,
    0xd2, 0xbd, 0xb3, 0xbb, 0xda, 0xbd, 0xe1, 0xe3, 0x42, 0xbe,
    0x86, 0xe5, 0x50, 0xbe, 0xb2, 0xa2, 0x46, 0xbd, 0x4e, 0xd4,
    0x2a, 0xbd, 0x1e, 0x7f, 0xa8, 0xbd, 0xea, 0x6c, 0xe8, 0xba,
    0xfc, 0x6c, 0x1d, 0xbe, 0xb1, 0xb5, 0xb6, 0x3c, 0xf8, 0xea,
    0xae, 0xbc, 0xd5, 0xc8, 0x9a, 0xbd, 0xff, 0x1d, 0xb3, 0xbd,
    0x52, 0x08, 0x4d, 0xbe, 0x13, 0xac, 0x3f, 0xbc, 0x96, 0x1f,
    0xdb, 0x3c, 0x13, 0x03, 0xa0, 0xbd, 0x81, 0x43, 0xd7, 0xbd,
    0xea, 0x99, 0x55, 0xbe, 0xcc, 0x9c, 0xd7, 0xbd, 0x11, 0x59,
    0xfd, 0xbd, 0x98, 0xc6, 0xce, 0xbd, 0x30, 0xa5, 0x96, 0xbd,
    0x98, 0xaf, 0x09, 0xbe, 0x48, 0x02, 0x22, 0xbe, 0xb1, 0xe8,
    0x38, 0x3c, 0x57, 0x1e, 0x7c, 0x3d, 0xf4, 0xf9, 0xde, 0xbd,
    0x81, 0x58, 0xab, 0x3d, 0x21, 0x02, 0x15, 0xbd, 0xe7, 0x04,
    0x8f, 0x3d, 0xf3, 0xe8, 0x0a, 0x3e, 0xfa, 0xff, 0x47, 0x3d,
    0x39, 0x36, 0x21, 0xbe, 0x9c, 0x54, 0xc5, 0xbd, 0x70, 0x2b,
    0x74, 0xbd, 0x33, 0x87, 0x3a, 0xbd, 0x5f, 0x9a, 0x4a, 0xbe,
    0x82, 0x2a, 0x73, 0xbd, 0xaf, 0x70, 0xb3, 0x3c, 0x43, 0x1f,
    0x3d, 0xbe, 0xc0, 0xbe, 0x23, 0x3e, 0x19, 0x34, 0x9c, 0xbb,
    0xf2, 0x17, 0xc2, 0xbd, 0x05, 0x7b, 0x80, 0x3d, 0xc4, 0x1e,
    0x31, 0xbd, 0x0b, 0x50, 0xb2, 0x3d, 0x52, 0x5c, 0xe8, 0xbd,
    0x5c, 0xaa, 0xac, 0x3d, 0x20, 0x05, 0xe1, 0xbd, 0x5b, 0x80,
    0x61, 0xbe, 0xe7, 0xb1, 0xb1, 0xbc, 0xf6, 0xd3, 0xe7, 0xbd,
    0x60, 0xaf, 0x1a, 0xbe, 0xd4, 0x14, 0x21, 0xbd, 0xa8, 0xa8,
    0x1d, 0x3e, 0x29, 0x8b, 0x2f, 0xbe, 0xc7, 0xfd, 0x11, 0x3d,
    0xc3, 0x73, 0x78, 0x3d, 0xe6, 0xf7, 0x3f, 0xbe, 0xda, 0x03,
    0x9a, 0x3d, 0x75, 0x63, 0xda, 0xbb, 0x4b, 0xf2, 0xab, 0x3d,
    0x08, 0xf3, 0x3b, 0x3e, 0xfe, 0xff, 0x0f, 0x3d, 0x4c, 0x03,
    0x68, 0xbe, 0xeb, 0xa5, 0x38, 0xbe, 0x4a, 0x8d, 0x2d, 0xbe,
    0xf4, 0x9b, 0x15, 0xbe, 0x5f, 0x54, 0xd6, 0xbd, 0x35, 0x49,
    0x99, 0xbd, 0x9a, 0x9f, 0x86, 0x3d, 0x04, 0x69, 0x94, 0x3c,
    0xab, 0x10, 0x91, 0x3d, 0xc9, 0x19, 0xf9, 0xbd, 0x23, 0xe3,
    0xdf, 0x3d, 0xda, 0x94, 0x4c, 0x3e, 0x27, 0xdc, 0x93, 0x3d,
    0x59, 0xcd, 0xa8, 0x3d, 0x58, 0x85, 0x92, 0x3b, 0x05, 0x96,
    0x7a, 0x3e, 0x71, 0x16, 0x04, 0xbe, 0xcc, 0x7a, 0x31, 0xbc,
    0xcd, 0x5c, 0x8c, 0x3d, 0xbb, 0xb1, 0x40, 0xbd, 0x0e, 0x68,
    0xa6, 0xbd, 0xe8, 0x05, 0x8e, 0x3d, 0xf7, 0xf7, 0xc1, 0x3c,
    0x2d, 0xc7, 0x93, 0x3c, 0x10, 0x36, 0x94, 0x3d, 0x36, 0xa9,
    0x90, 0x3d, 0x48, 0x2d, 0x01, 0x3e, 0x78, 0x47, 0x14, 0xbd,
    0x8a, 0xf4, 0x8a, 0xbc, 0x65, 0x98, 0x0a, 0xbd, 0x96, 0x5c,
    0x91, 0x3d, 0x0d, 0x12, 0x1d, 0x3e, 0xfc, 0xfe, 0x83, 0xbe,
    0x03, 0x9c, 0x08, 0xbe, 0xe6, 0xaa, 0x29, 0x3d, 0x9c, 0x1a,
    0x6e, 0xbe, 0xda, 0xf4, 0x1c, 0xbd, 0x2f, 0xcc, 0x4d, 0x3e,
    0xba, 0x69, 0x3e, 0x3c, 0xef, 0xd5, 0xb4, 0xbd, 0xc8, 0x64,
    0x45, 0x3d, 0x07, 0x26, 0x93, 0xbd, 0x0d, 0xfe, 0x34, 0x3e,
    0xd7, 0x9e, 0x3d, 0x3e, 0x9f, 0x71, 0x6c, 0xbc, 0xb7, 0x07,
    0x03, 0x3e, 0x81, 0xdd, 0x11, 0x3c, 0xb0, 0xc6, 0x86, 0x3e,
    0x0c, 0x1b, 0x82, 0xbe, 0xa5, 0x90, 0xf8, 0xbd, 0xfc, 0xda,
    0x9b, 0x3d, 0x99, 0x44, 0xf9, 0xbd, 0x66, 0xbf, 0xcb, 0xbd,
    0x7e, 0x06, 0xfa, 0x3d, 0x5d, 0xcd, 0xde, 0x3d, 0x06, 0xe8,
    0x55, 0x3e, 0xac, 0xb2, 0xcd, 0xbd, 0x00, 0x14, 0x69, 0xbc,
    0x6d, 0x2a, 0xad, 0x3d, 0x7a, 0x6f, 0x37, 0x3d, 0xd9, 0xd2,
    0xa8, 0x3d, 0xfb, 0xb5, 0x2c, 0xbe, 0x84, 0xf2, 0x1a, 0xbe,
    0xa1, 0xb5, 0x36, 0x3d, 0xb3, 0x69, 0xbe, 0x3b, 0xf2, 0xa8,
    0xdf, 0x3c, 0x40, 0x7c, 0x8c, 0xbd, 0x91, 0xfb, 0x82, 0x3d,
    0x7b, 0x76, 0xa7, 0xbd, 0x82, 0xbb, 0x57, 0xbc, 0x4b, 0x43,
    0x5a, 0x3e, 0xa8, 0xac, 0xc0, 0xbc, 0x70, 0xb6, 0x0d, 0xbe,
    0x70, 0xa6, 0x23, 0xbd, 0x32, 0x04, 0xf4, 0x3d, 0x04, 0x8e,
    0x1f, 0x3d, 0x05, 0x3d, 0x89, 0xbc, 0xa8, 0x53, 0x84, 0xbd,
    0xb3, 0xee, 0x4b, 0xbe, 0xb1, 0xf8, 0x96, 0xbc, 0xed, 0x43,
    0xb3, 0xbd, 0xcf, 0xc2, 0x60, 0xbc, 0x05, 0x99, 0x1f, 0x3e,
    0xd2, 0xa6, 0x49, 0xbc, 0xb2, 0xbc, 0x32, 0xbe, 0xaa, 0x53,
    0xd5, 0x3d, 0x85, 0x10, 0x58, 0x3d, 0x6d, 0xe1, 0x88, 0x3e,
    0x01, 0xe2, 0xda, 0xbd, 0x20, 0xbd, 0x09, 0x3e, 0xe4, 0x18,
    0x70, 0x3c, 0x4d, 0x43, 0xa6, 0xbd, 0x0b, 0x18, 0xc0, 0x3c,
    0x13, 0x35, 0x07, 0xbe, 0x02, 0x6c, 0x17, 0xbe, 0x18, 0x6c,
    0x49, 0xbd, 0x05, 0xb9, 0x58, 0x3b, 0x35, 0x8d, 0x7c, 0x3c,
    0xc8, 0xbf, 0x8a, 0x3d, 0x9f, 0xfb, 0x08, 0xba, 0x3b, 0x35,
    0x89, 0x3b, 0xce, 0x1c, 0x0f, 0x3e, 0x00, 0x14, 0x87, 0x3e,
    0x8c, 0xf1, 0xe3, 0xbd, 0x45, 0xa8, 0x27, 0xbd, 0x1d, 0x56,
    0x76, 0x3d, 0x16, 0x92, 0xc7, 0xbd, 0xf8, 0x20, 0x1b, 0x3d,
    0xb0, 0x9f, 0xbc, 0x3b, 0x86, 0xd1, 0x91, 0xbd, 0x9d, 0xf9,
    0xb5, 0xbd, 0x6d, 0x9c, 0x3d, 0xbd, 0x9b, 0xfd, 0xf5, 0x3c,
    0x63, 0x0b, 0x21, 0xbc, 0x0f, 0xc2, 0xb8, 0xbd, 0x6d, 0x95,
    0x00, 0x3d, 0x37, 0x1d, 0x71, 0x3b, 0x71, 0x20, 0xfa, 0xba,
    0xd5, 0xae, 0x77, 0xbd, 0x9a, 0x4b, 0xb5, 0xbd, 0xe3, 0x75,
    0x5c, 0xbd, 0x79, 0xa9, 0x97, 0x3d, 0xd5, 0x9f, 0x22, 0xbd,
    0x75, 0x5b, 0x45, 0xbd, 0xe7, 0xb5, 0x1c, 0xbe, 0x95, 0xf3,
    0xcd, 0xbd, 0x11, 0x52, 0x8f, 0xbd, 0x35, 0x66, 0x11, 0xbd,
    0x16, 0x2f, 0xd2, 0x3b, 0x4d, 0xf4, 0xa9, 0xbc, 0x8b, 0x6d,
    0xf9, 0x3c, 0xa0, 0x3b, 0x90, 0xbc, 0x06, 0x7d, 0x8f, 0x3b,
    0x6b, 0x92, 0xe7, 0xbd, 0x8f, 0x15, 0x87, 0x3d, 0x83, 0x10,
    0xf8, 0xbd, 0x1c, 0x5b, 0xc7, 0xbd, 0x5d, 0x9a, 0xe2, 0xbd,
    0xb2, 0x79, 0x96, 0xbd, 0x3f, 0x21, 0x65, 0xbd, 0x47, 0xa3,
    0xcd, 0xbd, 0xfb, 0x76, 0x9d, 0x3b, 0xcb, 0x12, 0xb4, 0xbd,
    0x19, 0x84, 0xe1, 0xbc, 0xaf, 0x24, 0xd1, 0x3d, 0x06, 0x86,
    0xe8, 0xbd, 0x8d, 0x2a, 0xaf, 0x3d, 0xaf, 0x05, 0x45, 0x3d,
    0xe9, 0xc4, 0x5e, 0x39, 0x2d, 0x6d, 0x23, 0x3d, 0x2a, 0x2a,
    0x93, 0xbd, 0x24, 0x0b, 0x7d, 0x3d, 0x76, 0x69, 0x0e, 0xbd,
    0x6e, 0xe8, 0xc2, 0xbd, 0x12, 0x33, 0x0c, 0xbe, 0xd0, 0xe2,
    0x10, 0x3e, 0x63, 0xf5, 0xb3, 0xbd, 0x94, 0xbe, 0x97, 0xbd,
    0x7d, 0x03, 0xd0, 0xbc, 0xd0, 0xc2, 0x27, 0xbe, 0xb6, 0xfb,
    0x9e, 0xbd, 0xb8, 0xd2, 0xa6, 0x3c, 0xb8, 0x58, 0xb5, 0xbd,
    0x84, 0x84, 0xdc, 0xbc, 0x9b, 0xbf, 0x82, 0x3c, 0xdf, 0x2c,
    0xd7, 0xbc, 0x66, 0x62, 0x07, 0x3e, 0xc1, 0x54, 0xfd, 0x3d,
    0x64, 0xd5, 0x0a, 0xbd, 0xf5, 0xfe, 0x04, 0xbe, 0x3f, 0xed,
    0x12, 0xbe, 0xad, 0x40, 0x93, 0xbc, 0xfd, 0x10, 0xc9, 0x3d,
    0xb6, 0x10, 0x0c, 0xbc, 0xc7, 0x17, 0x87, 0xbd, 0x29, 0x52,
    0xf9, 0xbd, 0x3c, 0x99, 0x9b, 0x3d, 0x16, 0xd1, 0x97, 0x3d,
    0x46, 0x01, 0xcf, 0xbc, 0x17, 0xef, 0xae, 0xbd, 0xd4, 0x60,
    0x18, 0xbd, 0x92, 0x47, 0xa9, 0x3b, 0x17, 0x7e, 0x12, 0x3e,
    0x0b, 0xed, 0x1b, 0xbc, 0x4f, 0x4e, 0x2d, 0xba, 0xa4, 0x04,
    0x87, 0x3d, 0x3e, 0x04, 0x1f, 0xbe, 0x75, 0xaf, 0x30, 0x3d,
    0xb2, 0xad, 0xca, 0x3b, 0xfc, 0xa5, 0x68, 0xbd, 0xe3, 0xa7,
    0xa6, 0xbc, 0xc4, 0x00, 0x8c, 0xbd, 0x88, 0xc9, 0x25, 0xbd,
    0xd1, 0xc1, 0x06, 0x3d, 0x4a, 0xfa, 0xbf, 0xbd, 0xf0, 0xd7,
    0x24, 0x3e, 0x89, 0xa2, 0x09, 0xbd, 0x00, 0xf0, 0x29, 0xbe,
    0x89, 0xb5, 0x93, 0xbd, 0x2a, 0xfd, 0x4b, 0x3e, 0x44, 0xea,
    0x13, 0xbd, 0xe1, 0x07, 0xaf, 0x3d, 0x39, 0x25, 0x2e, 0x3c,
    0xc6, 0x6a, 0xae, 0xbc, 0x9d, 0xcc, 0x23, 0x3d, 0x1c, 0x64,
    0xa6, 0x3c, 0xf3, 0x51, 0x57, 0xbc, 0xd1, 0xdb, 0x56, 0x3e,
    0xd8, 0x89, 0x26, 0xbc, 0x59, 0xb7, 0x9e, 0xbd, 0x3d, 0xf3,
    0xff, 0x3d, 0x10, 0x9d, 0x22, 0xbe, 0xb1, 0x95, 0x9e, 0xbd,
    0x50, 0xeb, 0x77, 0x3d, 0x67, 0xd9, 0xc6, 0x3c, 0x37, 0x68,
    0xf4, 0x3d, 0x38, 0x85, 0x9b, 0x3c, 0xe1, 0x02, 0x93, 0x3d,
    0x75, 0xcb, 0xf5, 0xbd, 0x70, 0x4a, 0x2e, 0xbc, 0x28, 0x7b,
    0x98, 0x3c, 0x4e, 0x9f, 0x6c, 0x3d, 0x58, 0x65, 0x05, 0xbc,
    0xce, 0x25, 0x99, 0xbd, 0x92, 0xa1, 0x51, 0x3c, 0x26, 0xe3,
    0xff, 0xbd, 0xfe, 0x02, 0x0c, 0x3e, 0xc0, 0x59, 0x38, 0xbd,
    0xe0, 0x72, 0xf3, 0xbd, 0xf7, 0xb5, 0xc3, 0xbc, 0x40, 0x2d,
    0x86, 0x3d, 0x88, 0xfa, 0x0e, 0x3d, 0x56, 0x40, 0x13, 0xbc,
    0x64, 0xe2, 0x34, 0x3d, 0x6b, 0xc1, 0x74, 0xbe, 0x5b, 0x4b,
    0x69, 0xbc, 0x1b, 0x77, 0x12, 0x3e, 0x0a, 0x2b, 0x7a, 0xbd,
    0x18, 0x43, 0xf5, 0xbb, 0x85, 0xb2, 0x18, 0x3e, 0xfb, 0xfd,
    0x1a, 0xbb, 0x4d, 0x5b, 0xa4, 0xbd, 0x12, 0xbd, 0x02, 0x3e,
    0xb2, 0x92, 0x83, 0x3c, 0xcd, 0x7a, 0x78, 0xbd, 0x21, 0xd3,
    0xb9, 0x3d, 0xc2, 0x8a, 0x1a, 0x3c, 0xd0, 0xf4, 0x84, 0x3c,
    0x77, 0x90, 0x10, 0x3d, 0x3a, 0xe5, 0x15, 0xbe, 0x5b, 0xa2,
    0x63, 0xbd, 0x77, 0xeb, 0x58, 0x3d, 0x6a, 0xe9, 0x12, 0x3e,
    0x8a, 0x18, 0x09, 0x3e, 0xf9, 0xc1, 0x09, 0x3d, 0x54, 0x73,
    0x1b, 0xbe, 0x73, 0x67, 0xa9, 0xbc, 0x9f, 0x4d, 0x29, 0xbe,
    0xd7, 0xfa, 0x66, 0xbd, 0xd5, 0x09, 0x03, 0xbd, 0x5f, 0x53,
    0xef, 0x3c, 0xb3, 0x4c, 0x99, 0xbd, 0x69, 0xfa, 0x60, 0x3c,
    0x80, 0x18, 0x84, 0x3d, 0xad, 0xf7, 0x40, 0xbc, 0x1c, 0xa0,
    0xbc, 0x3c, 0xa7, 0x6a, 0x75, 0xbd, 0x63, 0x5e, 0x98, 0xbd,
    0x32, 0x97, 0x0d, 0x3e, 0x59, 0x62, 0x85, 0xbd, 0x35, 0x7a,
    0x03, 0x3d, 0xed, 0x32, 0xbb, 0x3c, 0x21, 0xf7, 0x9c, 0xbd,
    0x7e, 0x77, 0x1d, 0xbe, 0x6c, 0x44, 0x08, 0x3e, 0x15, 0x79,
    0x13, 0xbd, 0x89, 0xc5, 0xd4, 0x3d, 0x66, 0xe0, 0xef, 0xbd,
    0xda, 0x62, 0xd8, 0xbd, 0x59, 0x26, 0x16, 0x3d, 0x62, 0xd9,
    0x86, 0xbc, 0x12, 0x82, 0x01, 0x3e, 0xf0, 0xd8, 0x42, 0xbe,
    0xe2, 0x69, 0x77, 0xbd, 0xbf, 0x29, 0x5d, 0xbd, 0xf6, 0x54,
    0x6a, 0xbd, 0xb8, 0x71, 0x0e, 0x3d, 0xaf, 0x30, 0x7a, 0xbc,
    0x34, 0xfb, 0xfb, 0xbc, 0x70, 0x2e, 0x5a, 0xbd, 0x25, 0x51,
    0xb8, 0x3c, 0x5b, 0x33, 0x06, 0xbd, 0x8c, 0x54, 0x8b, 0xbc,
    0x26, 0x81, 0xd6, 0x3c, 0xa1, 0xa5, 0x0c, 0xbe, 0xcb, 0xe3,
    0x80, 0x3d, 0x74, 0x99, 0x64, 0xbd, 0x39, 0x0d, 0xa7, 0xbd,
    0x75, 0xfe, 0xe0, 0x3c, 0x71, 0xf7, 0xf2, 0x3d, 0xef, 0xd6,
    0x91, 0x3c, 0xd3, 0x65, 0xaf, 0x3d, 0x36, 0xb0, 0xa3, 0xba,
    0x51, 0x2e, 0xed, 0x3d, 0x8b, 0xfe, 0xc2, 0x3b, 0x0e, 0x5a,
    0x0d, 0xbe, 0x44, 0xa8, 0x00, 0x3e, 0x20, 0xaf, 0xd6, 0xbd,
    0xc5, 0x87, 0xc7, 0x3d, 0x1a, 0x83, 0xc1, 0x3d, 0xff, 0x79,
    0xd3, 0x3c, 0xd1, 0x63, 0x84, 0x3d, 0x7d, 0x80, 0x39, 0x3d,
    0x7f, 0x27, 0x70, 0x3c, 0xc4, 0xa3, 0x0b, 0x3a, 0x18, 0x13,
    0x60, 0x3e, 0x4e, 0x84, 0x34, 0xbd, 0x25, 0x55, 0x14, 0x3e,
    0x16, 0x4b, 0x19, 0x3c, 0x4b, 0x38, 0x04, 0xbe, 0x21, 0x97,
    0x82, 0xbd, 0x75, 0xdc, 0x07, 0xbe, 0xbd, 0xdb, 0x16, 0x3e,
    0xc8, 0xba, 0x2b, 0xbe, 0xca, 0xf6, 0x31, 0xbd, 0x4e, 0x24,
    0xfb, 0xbb, 0xd6, 0x4a, 0xca, 0xbd, 0x8b, 0x4f, 0xcd, 0x3d,
    0xb9, 0x4e, 0x87, 0xbd, 0x1b, 0x75, 0xa3, 0x3d, 0xfe, 0x8e,
    0xf0, 0xbd, 0x7c, 0x84, 0xa4, 0x3d, 0x73, 0xa5, 0x07, 0xbd,
    0x96, 0xb2, 0xfe, 0xbc, 0x70, 0x06, 0x14, 0xbd, 0x0f, 0x86,
    0x61, 0xbb, 0x3e, 0x91, 0x08, 0xbd, 0x2a, 0x6d, 0xa5, 0xbd,
    0xe7, 0xdd, 0x97, 0x3c, 0x10, 0xef, 0x37, 0xbd, 0xf9, 0x11,
    0x85, 0x3d, 0xf2, 0x88, 0xca, 0xbd, 0xe3, 0x48, 0xf0, 0x3c,
    0xbe, 0x9d, 0xef, 0xbd, 0x64, 0xf9, 0xaf, 0x3d, 0x4e, 0x7a,
    0x89, 0xbc, 0xb0, 0x42, 0x9d, 0xbd, 0xfe, 0x5f, 0x67, 0x3d,
    0x2a, 0x3b, 0x94, 0x3d, 0x1c, 0xec, 0xac, 0x3c, 0x92, 0xa4,
    0x2f, 0x3d, 0xa3, 0xa8, 0x45, 0xbe, 0xeb, 0x8e, 0x08, 0x3c,
    0x98, 0x35, 0x9e, 0xbc, 0x03, 0xf3, 0x2c, 0xbe, 0xd4, 0x9e,
    0x26, 0x3d, 0x0b, 0x81, 0x02, 0x3e, 0xd7, 0xd6, 0x54, 0xbe,
    0x11, 0x97, 0xdf, 0x3d, 0x51, 0x9e, 0xec, 0xbd, 0xd2, 0x9a,
    0x0c, 0xbd, 0x08, 0x68, 0xba, 0xbd, 0x3a, 0xb6, 0x89, 0xbd,
    0x55, 0x64, 0xbb, 0xbc, 0xb6, 0xce, 0xb7, 0xbd, 0x2c, 0x04,
    0x13, 0x3e, 0x4c, 0x43, 0xa7, 0x3d, 0xb1, 0x3e, 0x1b, 0xbe,
    0x76, 0xa6, 0xeb, 0x3c, 0x8b, 0xa1, 0x9c, 0xbd, 0x03, 0x2a,
    0x06, 0xbe, 0x2f, 0x4d, 0xbc, 0xbd, 0x6f, 0x3b, 0x0e, 0x3d,
    0x9c, 0x87, 0x98, 0xbd, 0x3d, 0xb3, 0x2d, 0x3c, 0x9f, 0xf2,
    0xf4, 0xbd, 0xb4, 0x6f, 0x97, 0x3d, 0xcd, 0x61, 0x12, 0x3e,
    0x6d, 0x1e, 0xeb, 0xbd, 0xa4, 0x27, 0x3d, 0x3d, 0x9d, 0x23,
    0x11, 0x3c, 0xd9, 0x20, 0xb3, 0x3c, 0xf1, 0xa0, 0xbb, 0x3d,
    0x9a, 0xf7, 0x19, 0xbe, 0x23, 0x95, 0xb7, 0xbd, 0x60, 0xec,
    0x04, 0xbe, 0xed, 0x46, 0x34, 0xbd, 0x39, 0x2d, 0x53, 0xbd,
    0x61, 0x73, 0x33, 0x3e, 0x79, 0x82, 0xd2, 0xbd, 0xcb, 0x64,
    0x27, 0x3e, 0xc2, 0x9c, 0x3c, 0xbd, 0x3a, 0x1a, 0x95, 0xbc,
    0xe9, 0x4b, 0xcf, 0xbd, 0x91, 0x7d, 0xc0, 0xbc, 0xf3, 0x0e,
    0x81, 0xbd, 0x41, 0x3a, 0x02, 0xbe, 0x81, 0xdb, 0xea, 0xbd,
    0xad, 0xa8, 0x98, 0xbc, 0x04, 0x6f, 0xe8, 0x3d, 0x9e, 0x0a,
    0xc3, 0x3a, 0x26, 0xd8, 0x33, 0x3d, 0xa3, 0xf6, 0xd6, 0xbc,
    0x2a, 0x5b, 0x75, 0xbd, 0xf3, 0x9c, 0x1c, 0xbd, 0xae, 0x87,
    0xeb, 0x3d, 0xd3, 0x15, 0x9a, 0xbd, 0x1b, 0x1d, 0x95, 0xbc,
    0xe7, 0x6b, 0xd2, 0x3c, 0x6e, 0xb3, 0x0d, 0x3e, 0xb6, 0x30,
    0xb3, 0x3c, 0x9f, 0xe7, 0x3a, 0xbd, 0xb5, 0x9f, 0xe7, 0xbd,
    0x55, 0xe1, 0x0e, 0x3c, 0x7d, 0x22, 0x37, 0x3c, 0x86, 0x37,
    0x13, 0x3e, 0x0c, 0xda, 0x04, 0x3c, 0x98, 0xe2, 0xb3, 0xbd,
    0x01, 0x53, 0xa5, 0xbd, 0x9c, 0xe6, 0xf0, 0xbc, 0x89, 0x95,
    0xa4, 0xbd, 0xbd, 0x57, 0x16, 0x3e, 0xc8, 0x98, 0x3a, 0x3d,
    0x85, 0x30, 0x3f, 0xbd, 0xc8, 0x62, 0x32, 0xbc, 0xca, 0x8b,
    0xc4, 0xbb, 0xa4, 0xc2, 0xa7, 0x3c, 0xae, 0xc4, 0x2f, 0xbd,
    0x62, 0x15, 0xd7, 0xbd, 0x4c, 0x19, 0xe3, 0xbd, 0xdb, 0x18,
    0xee, 0xbc, 0x1b, 0x1d, 0x68, 0x3e, 0x04, 0x40, 0xce, 0xbc,
    0x44, 0x8f, 0xae, 0x3b, 0xdf, 0x56, 0x09, 0x3a, 0xd0, 0xd5,
    0x10, 0xbe, 0xfc, 0xaa, 0x8b, 0xbc, 0xff, 0x8c, 0xfc, 0x3d,
    0xbd, 0x70, 0xa7, 0x3b, 0xc7, 0x34, 0x7f, 0xbc, 0xaf, 0x90,
    0xbc, 0x3d, 0x18, 0x22, 0xd3, 0xbc, 0xfb, 0x96, 0x7d, 0x3d,
    0x04, 0x76, 0x6e, 0xbc, 0xbf, 0x57, 0x5c, 0xbd, 0x88, 0x4f,
    0x83, 0xbd, 0xa7, 0x69, 0x26, 0x3e, 0x8d, 0x70, 0xb1, 0xbc,
    0x73, 0x19, 0x32, 0xbe, 0xd0, 0x54, 0x3f, 0xbd, 0x03, 0x33,
    0xbb, 0xbd, 0x1d, 0xab, 0xe4, 0xbb, 0xde, 0x20, 0x73, 0x3d,
    0x92, 0xee, 0xe3, 0xbd, 0xea, 0xe9, 0xdb, 0x3d, 0xbb, 0x3c,
    0xad, 0xbd, 0xec, 0x11, 0x91, 0x3c, 0x33, 0xaa, 0x76, 0xbd,
    0x4e, 0xa2, 0x5a, 0xbd, 0x39, 0xee, 0x07, 0x3d, 0x2b, 0xd3,
    0x03, 0xbe, 0xd3, 0x35, 0xc2, 0xbc, 0x89, 0x9d, 0x61, 0x3d,
    0x05, 0xbc, 0xe1, 0x3d, 0x77, 0xf9, 0x3d, 0xbe, 0x2a, 0x1c,
    0x56, 0xbd, 0xa6, 0xcb, 0xb7, 0xbd, 0x7e, 0x7f, 0x2a, 0xbe,
    0xdc, 0x7c, 0xeb, 0xbd, 0x65, 0xca, 0x30, 0xbd, 0x64, 0x5d,
    0x97, 0x3d, 0x5b, 0x97, 0xca, 0xbd, 0xd8, 0x65, 0x83, 0x3d,
    0x2d, 0x17, 0xf6, 0x3d, 0xf0, 0x2f, 0x07, 0x3e, 0x3b, 0xd3,
    0x28, 0xbc, 0x51, 0x23, 0xd2, 0x3d, 0x65, 0x8c, 0x33, 0xbb,
    0x2e, 0xb4, 0x66, 0x3d, 0x02, 0x1c, 0x8b, 0xbd, 0x3d, 0x63,
    0x25, 0xbe, 0xef, 0xdc, 0x0a, 0xbe, 0x37, 0xc5, 0xa1, 0xbd,
    0x7b, 0xb4, 0x97, 0xbd, 0x99, 0x11, 0xe6, 0xbc, 0x71, 0x5f,
    0x9d, 0x3c, 0x05, 0xea, 0x76, 0x3d, 0x53, 0x85, 0x34, 0xbe,
    0x1e, 0xdc, 0x34, 0x3d, 0x23, 0xc1, 0x85, 0x3c, 0xd6, 0x33,
    0xc5, 0xbd, 0x6c, 0xc2, 0xb2, 0x3a, 0xe8, 0x2a, 0x9e, 0x3d,
    0x0e, 0x69, 0x5c, 0x3d, 0x02, 0xde, 0x33, 0xbb, 0x6b, 0x4e,
    0xd4, 0x3c, 0x75, 0x1b, 0x07, 0xbe, 0xa1, 0xf0, 0x39, 0xbe,
    0x75, 0x07, 0x8e, 0xbd, 0x20, 0x48, 0x6b, 0xbe, 0x00, 0x45,
    0x25, 0xbe, 0xe2, 0xd7, 0xf4, 0x3c, 0x96, 0x16, 0xb4, 0x3d,
    0xbd, 0xd2, 0x50, 0xbe, 0xe5, 0x43, 0xf8, 0x3c, 0xa6, 0x04,
    0xf3, 0x3d, 0xa3, 0x7d, 0x16, 0xbe, 0x34, 0x47, 0x27, 0xbc,
    0x47, 0xbe, 0x89, 0x3d, 0xa2, 0x84, 0x07, 0x3c, 0x5b, 0x8c,
    0xa0, 0xbc, 0x35, 0x9e, 0xd3, 0x3c, 0x2c, 0xf1, 0x82, 0xbe,
    0x09, 0xa9, 0x11, 0xbe, 0x45, 0xa8, 0x0f, 0xbe, 0x90, 0xe9,
    0x8a, 0xbd, 0x56, 0x86, 0x0c, 0xbe, 0x9a, 0xa0, 0x18, 0x3c,
    0xdf, 0x3e, 0x10, 0x3e, 0xb1, 0x66, 0x5a, 0xbe, 0x70, 0x42,
    0x0e, 0x3d, 0x68, 0x4f, 0xd9, 0x3d, 0x62, 0xde, 0x24, 0xbe,
    0x6e, 0xd9, 0x27, 0xbd, 0x6c, 0xb8, 0xeb, 0xbd, 0xa1, 0x7c,
    0x74, 0x3d, 0x08, 0x14, 0x2b, 0x3a, 0x91, 0xd6, 0x8b, 0x3d,
    0x2a, 0x7a, 0x9d, 0xbd, 0x98, 0xa2, 0xce, 0xbd, 0x82, 0xf6,
    0xd3, 0xbc, 0x9e, 0x44, 0x58, 0xbe, 0xc7, 0xa9, 0xc5, 0xbd,
    0xe7, 0xfa, 0x21, 0xbc, 0xa6, 0xce, 0x41, 0x3e, 0x7b, 0x11,
    0x84, 0x3d, 0x39, 0x44, 0x92, 0x3b, 0x7c, 0x69, 0xa7, 0x3d,
    0x8e, 0x79, 0x4a, 0x3e, 0x0a, 0xee, 0x36, 0xbd, 0xda, 0x1b,
    0xc1, 0xbd, 0xe5, 0xa7, 0x1f, 0xbc, 0x07, 0x0d, 0x96, 0xbb,
    0x25, 0xfc, 0xc6, 0x3d, 0x2d, 0xe9, 0x14, 0xbd, 0x77, 0xf1,
    0xa9, 0xbd, 0x31, 0x11, 0xda, 0xbd, 0x63, 0x76, 0x2a, 0xbe,
    0x34, 0xce, 0x21, 0xbe, 0x59, 0x16, 0x17, 0xbc, 0xf1, 0xf1,
    0x36, 0xbd, 0x03, 0x12, 0xa5, 0x3c, 0x2c, 0xd3, 0x8b, 0xbd,
    0xb4, 0xb5, 0x88, 0x3c, 0x21, 0xf8, 0x34, 0x3e, 0xe3, 0x52,
    0x00, 0xbe, 0x2d, 0xdb, 0xa2, 0x3d, 0x15, 0x77, 0x09, 0xbd,
    0x1e, 0x33, 0x2f, 0x3c, 0x32, 0xa0, 0xba, 0x3d, 0x99, 0x0e,
    0x84, 0xbd, 0xf4, 0x8a, 0x1a, 0x3d, 0x0a, 0x53, 0x24, 0x3d,
    0x2e, 0x52, 0x7d, 0x3c, 0xc7, 0x1e, 0x21, 0xbe, 0x4e, 0x37,
    0x17, 0x3e, 0xcd, 0xcc, 0x1c, 0x3d, 0x90, 0x5c, 0x42, 0x3c,
    0xff, 0x21, 0x01, 0x3c, 0xf3, 0xb5, 0x3f, 0x3d, 0xdd, 0x24,
    0x53, 0x3c, 0xe1, 0xd8, 0xd0, 0x3b, 0x83, 0xd7, 0x4c, 0xbd,
    0x5b, 0xbd, 0xe0, 0xbc, 0xeb, 0xdb, 0x19, 0x3b, 0x50, 0x77,
    0x61, 0xbd, 0x11, 0x2e, 0x59, 0x3c, 0x41, 0x99, 0x63, 0x3d,
    0xc0, 0x41, 0x58, 0x3b, 0x3d, 0x36, 0x25, 0xbe, 0x94, 0x16,
    0x40, 0xbe, 0x00, 0xba, 0x21, 0xbd, 0xb9, 0x48, 0xe6, 0x3d,
    0x96, 0x3b, 0x41, 0xbd, 0x6e, 0x75, 0x9e, 0x3d, 0xbd, 0xf1,
    0xbf, 0xbd, 0x84, 0x30, 0xa9, 0x3b, 0x6e, 0xa3, 0x0d, 0x3e,
    0x63, 0x51, 0x94, 0x3d, 0x00, 0x54, 0x0b, 0xbc, 0x12, 0x40,
    0x7e, 0x3c, 0x44, 0xeb, 0x2b, 0x3e, 0x56, 0x83, 0x38, 0xbe,
    0x63, 0x2d, 0x05, 0xbe, 0x08, 0x59, 0xec, 0x3d, 0xdd, 0x44,
    0xc4, 0xbd, 0x61, 0x51, 0xe0, 0xbc, 0xdb, 0x5b, 0xc1, 0x3d,
    0xe2, 0x92, 0xbd, 0x3d, 0xd0, 0x5a, 0x3e, 0xbc, 0xbd, 0x10,
    0xbc, 0xbc, 0x6b, 0x88, 0xf3, 0xbd, 0x26, 0x47, 0x4a, 0x3d,
    0x89, 0x3d, 0x91, 0x3e, 0x7c, 0x24, 0x69, 0x3c, 0x9c, 0x00,
    0x9d, 0x3c, 0xa8, 0x06, 0xaa, 0x3b, 0x4f, 0xc2, 0xc1, 0xbc,
    0xd3, 0x8e, 0x22, 0xbe, 0xd2, 0xc4, 0x6b, 0x3d, 0x16, 0x54,
    0xb9, 0xbb, 0x1c, 0x01, 0x72, 0xbc, 0x65, 0x26, 0x88, 0xbd,
    0x17, 0x48, 0xf7, 0xbc, 0x67, 0xc1, 0x05, 0xbc, 0x29, 0x5f,
    0xf3, 0x3d, 0x38, 0xef, 0xa3, 0xbc, 0x1f, 0x5a, 0xbf, 0xbd,
    0x25, 0xf0, 0xce, 0x3d, 0x33, 0xf2, 0x7d, 0x3e, 0xe2, 0x6e,
    0x35, 0xbd, 0xd4, 0x56, 0xb2, 0xbc, 0xc2, 0x09, 0x3b, 0x3d,
    0xe8, 0xb6, 0x5f, 0x3e, 0x94, 0xc9, 0x5d, 0xbe, 0x39, 0x04,
    0x49, 0xbd, 0x9f, 0x07, 0xaf, 0xbd, 0x48, 0xe6, 0xd1, 0xbd,
    0x99, 0x7a, 0xf3, 0xbd, 0xf7, 0x98, 0xff, 0xbc, 0xd4, 0x55,
    0x93, 0xbc, 0x9a, 0x8a, 0x8c, 0x3d, 0x76, 0x4a, 0x74, 0xbb,
    0x4e, 0xb7, 0x97, 0xbd, 0x6d, 0xed, 0xa9, 0xbc, 0x5a, 0x75,
    0xb4, 0xbb, 0x1b, 0xb8, 0x73, 0x3d, 0x08, 0xc4, 0x52, 0x3d,
    0xe0, 0x8d, 0x8c, 0x3c, 0x6a, 0x95, 0x08, 0x3e, 0xeb, 0x3f,
    0xc1, 0xbc, 0x31, 0x48, 0xd5, 0xbd, 0x9c, 0xff, 0x48, 0x3d,
    0x31, 0x38, 0x19, 0xbd, 0x3d, 0x46, 0x01, 0xbe, 0x09, 0x1a,
    0xb8, 0x3d, 0xd9, 0xe7, 0xcf, 0xbd, 0xbf, 0x95, 0xfd, 0xbd,
    0xfb, 0x8d, 0x9d, 0x3a, 0x57, 0x52, 0xab, 0x3d, 0xd7, 0x44,
    0x0d, 0xbd, 0x8e, 0x71, 0x0d, 0xbd, 0x2c, 0x30, 0x03, 0x3e,
    0x83, 0x7d, 0xa5, 0xbb, 0xa5, 0xdd, 0x7a, 0xbc, 0x1a, 0xe6,
    0xcb, 0x3d, 0x13, 0xf1, 0xfb, 0xbc, 0xb6, 0xac, 0x10, 0xbd,
    0xb9, 0x6a, 0x85, 0xbc, 0x64, 0x3a, 0x04, 0xbd, 0x9e, 0x25,
    0xf1, 0xbd, 0x1e, 0xda, 0xcc, 0x3d, 0xf7, 0x7f, 0x59, 0xbd,
    0x8c, 0x7d, 0xf7, 0x3d, 0xa7, 0x53, 0xad, 0x3c, 0x31, 0xe5,
    0x8f, 0xbd, 0x72, 0x2c, 0x09, 0xbd, 0x53, 0x9e, 0xfa, 0x3b,
    0xc7, 0x6f, 0xd9, 0x3d, 0x98, 0x6f, 0x36, 0x3d, 0x89, 0x40,
    0xe8, 0x3b, 0xb7, 0x74, 0x8a, 0x3d, 0x10, 0x3a, 0x36, 0xbe,
    0xd0, 0x5a, 0xf3, 0xbd, 0xfb, 0xcd, 0x27, 0xbd, 0x86, 0x2d,
    0x1d, 0xbe, 0x37, 0xb1, 0xe1, 0xbd, 0xff, 0xab, 0x06, 0x3e,
    0x00, 0xd6, 0xe3, 0xbd, 0xbe, 0x21, 0x0f, 0x3e, 0x55, 0x30,
    0xf3, 0xbd, 0xf6, 0x70, 0xc9, 0x3d, 0x69, 0x68, 0x81, 0x3e,
    0x4b, 0x7e, 0x1e, 0x3e, 0x53, 0xdd, 0x69, 0x3e, 0x95, 0x2a,
    0x8e, 0xbd, 0x52, 0xed, 0xe4, 0xbc, 0xf3, 0xd8, 0xf7, 0xbd,
    0xf7, 0xa9, 0x0f, 0xbe, 0x16, 0xee, 0xa3, 0x3c, 0x70, 0x26,
    0x47, 0x3c, 0x3c, 0xbd, 0x8e, 0x3c, 0x68, 0x13, 0xd7, 0x3b,
    0xe6, 0xc1, 0x0d, 0x3d, 0x92, 0x29, 0xc0, 0xbd, 0x66, 0xfe,
    0x35, 0x3e, 0x93, 0xb6, 0xf4, 0xbd, 0x1a, 0x56, 0x51, 0xbd,
    0xd0, 0x61, 0x54, 0xbd, 0x38, 0xb4, 0xce, 0x3c, 0xd9, 0x46,
    0x4b, 0xbd, 0x3e, 0x00, 0xfc, 0xbc, 0xeb, 0xd9, 0x24, 0x3b,
    0xc1, 0xa7, 0x58, 0xbd, 0x03, 0x29, 0x17, 0xbe, 0xc8, 0xb0,
    0xa0, 0x3c, 0xd7, 0x14, 0xd7, 0x3d, 0x11, 0x90, 0xe1, 0x3d,
    0xf8, 0x8e, 0x09, 0xbe, 0x8a, 0x36, 0xf5, 0x3b, 0x94, 0x05,
    0xbe, 0xbc, 0x3f, 0x42, 0x47, 0x3e, 0x25, 0xbc, 0x0e, 0xbe,
    0xab, 0x9c, 0x8d, 0x3d, 0x57, 0x36, 0xfd, 0x3d, 0x9e, 0x6e,
    0xfa, 0x3d, 0x5d, 0x3b, 0x6d, 0x3e, 0x1a, 0x53, 0xb8, 0xbc,
    0x6c, 0x3a, 0xc6, 0xbc, 0xe4, 0xcf, 0xcf, 0xbd, 0x73, 0xb6,
    0xea, 0xbd, 0x8d, 0x65, 0x30, 0x3e, 0xc4, 0x42, 0x99, 0x3c,
    0xe0, 0x71, 0x95, 0x3d, 0x53, 0xc1, 0x14, 0xbe, 0x0d, 0x33,
    0x22, 0x3d, 0x95, 0x11, 0xc5, 0xbd, 0xda, 0x59, 0x50, 0x3e,
    0x60, 0xbf, 0x13, 0xbb, 0xa4, 0xfd, 0xac, 0x3c, 0xfc, 0x79,
    0x3c, 0x3d, 0xb6, 0x1c, 0xe6, 0xbd, 0xc3, 0x5a, 0xc3, 0x3d,
    0xc0, 0xf9, 0x6c, 0x3c, 0xf3, 0x07, 0x29, 0x3c, 0xa9, 0x37,
    0xdf, 0xbd, 0xc6, 0x2b, 0xb4, 0xbd, 0xd9, 0xee, 0x3a, 0xbd,
    0x35, 0x0e, 0x34, 0x3d, 0xe4, 0xa1, 0xda, 0xbc, 0xde, 0x8f,
    0x37, 0x3b, 0x2f, 0x4b, 0x69, 0xbd, 0xbd, 0x1a, 0x69, 0xbc,
    0x69, 0x27, 0x08, 0x3e, 0x43, 0x52, 0x61, 0x3b, 0xff, 0xc5,
    0x9d, 0x3d, 0x87, 0xc2, 0xa3, 0xbd, 0x48, 0xb0, 0x59, 0x3e,
    0x57, 0x9e, 0x3d, 0x3c, 0xf7, 0xe5, 0xa7, 0x3d, 0xd4, 0xb7,
    0xca, 0x3c, 0x8f, 0x0c, 0xdc, 0xbb, 0xce, 0xbe, 0xf6, 0xbd,
    0x79, 0x1a, 0x72, 0x3d, 0x3e, 0x89, 0x55, 0xbd, 0x65, 0x93,
    0xb8, 0xbc, 0x8f, 0x89, 0xa4, 0xbd, 0xa4, 0x8b, 0xce, 0x3d,
    0xf6, 0x78, 0x12, 0xbd, 0x82, 0xea, 0x38, 0x3e, 0xa9, 0x76,
    0xc4, 0x3c, 0xb4, 0x93, 0x98, 0x3d, 0xef, 0x3c, 0x05, 0xbd,
    0xcc, 0xa2, 0x2e, 0xbe, 0x74, 0x14, 0x39, 0x3d, 0xed, 0x6a,
    0x8c, 0x3d, 0x38, 0x29, 0xd4, 0x3c, 0x57, 0x22, 0x55, 0x3b,
    0xe9, 0xc5, 0x45, 0x3d, 0xb8, 0xc1, 0x8b, 0xbd, 0xda, 0x1f,
    0xad, 0x3d, 0x89, 0xbd, 0xa9, 0xbd, 0x43, 0x97, 0x00, 0x3d,
    0x0e, 0xc0, 0x0c, 0x3d, 0x9b, 0x67, 0x9d, 0xbd, 0x1c, 0x7f,
    0xce, 0x3e, 0x43, 0xd9, 0x00, 0xbe, 0xb0, 0xb0, 0x14, 0x3e,
    0xcc, 0x47, 0x40, 0x3a, 0xbc, 0x07, 0xf2, 0xbd, 0xf6, 0x8c,
    0x54, 0xbd, 0xdd, 0x30, 0x58, 0xbc, 0xbc, 0xfb, 0x57, 0xbe,
    0x1a, 0x30, 0x41, 0x3d, 0x8a, 0xaa, 0xfd, 0x3c, 0xe0, 0x98,
    0x81, 0xbc, 0x95, 0x96, 0x83, 0x3e, 0x94, 0x28, 0x39, 0xbd,
    0xf5, 0x25, 0x46, 0xbd, 0x50, 0xd6, 0x1d, 0x3e, 0x2c, 0xc5,
    0x2f, 0x3e, 0xdb, 0x8e, 0xb0, 0x3e, 0x13, 0xb6, 0xe8, 0xbd,
    0x33, 0x63, 0xe2, 0xbc, 0x62, 0xcb, 0x37, 0x3c, 0xf6, 0x2a,
    0x4a, 0x3d, 0x2e, 0x13, 0x64, 0x3d, 0x51, 0x59, 0x94, 0xbc,
    0xdf, 0x72, 0x5c, 0xbe, 0x0a, 0xda, 0xd4, 0x3d, 0x26, 0x87,
    0x5b, 0x3d, 0x96, 0x2d, 0xb3, 0x3b, 0xad, 0x6f, 0x5c, 0x3c,
    0xb5, 0x20, 0x89, 0xbd, 0x58, 0x4b, 0x17, 0x3d, 0x4f, 0x03,
    0x96, 0x3d, 0xb2, 0xd7, 0x8d, 0xbd, 0xbb, 0x48, 0xf3, 0x3e,
    0xe5, 0x56, 0x03, 0xbe, 0xaa, 0x97, 0x14, 0x3e, 0xa0, 0x86,
    0xde, 0xbb, 0x4d, 0x38, 0xcf, 0xbd, 0xb9, 0x6f, 0x1c, 0x3e,
    0x98, 0x71, 0xff, 0xbd, 0x35, 0x3a, 0x2c, 0xbe, 0xf3, 0x87,
    0x54, 0x3e, 0xc1, 0x87, 0xe3, 0x3c, 0xae, 0x40, 0x8f, 0xbc,
    0xb8, 0x43, 0xd8, 0x3d, 0xde, 0x5e, 0x8b, 0x3c, 0xab, 0x8a,
    0x1f, 0xbe, 0x9a, 0xfd, 0x3d, 0x3d, 0x35, 0xb8, 0x39, 0x3e,
    0x80, 0x5e, 0xdd, 0xbb, 0x4f, 0x0a, 0xa0, 0xbd, 0x97, 0xa8,
    0xed, 0x3d, 0xfe, 0x89, 0x03, 0xbd, 0xd5, 0xc9, 0x87, 0xbc,
    0x2d, 0xf2, 0xc3, 0xbd, 0xf4, 0xf2, 0x0c, 0xbe, 0x02, 0xe3,
    0xd6, 0xbc, 0xbc, 0x0a, 0xd7, 0x3d, 0x5c, 0xbb, 0x53, 0x3b,
    0xf6, 0xd9, 0xe3, 0xbc, 0x2a, 0xaa, 0xd8, 0xbc, 0xda, 0xc9,
    0xb9, 0xbc, 0xda, 0xc3, 0xae, 0x3c, 0x8b, 0xd6, 0xfe, 0x3c,
    0x39, 0xf4, 0x06, 0x3c, 0x23, 0x97, 0xf3, 0xbd, 0xb0, 0x1b,
    0xca, 0xbd, 0x48, 0xaa, 0xdc, 0xbd, 0x9d, 0x46, 0xb4, 0xbd,
    0xfc, 0xbc, 0xab, 0xbc, 0xb0, 0xf0, 0xc8, 0x3d, 0x19, 0x03,
    0x43, 0xbd, 0x84, 0xd3, 0x88, 0xbd, 0x0d, 0xd4, 0xee, 0x3c,
    0xac, 0xd0, 0x99, 0xbd, 0x79, 0x39, 0x44, 0xbd, 0x30, 0xd3,
    0xc0, 0xbb, 0x81, 0xd7, 0x41, 0x3b, 0xba, 0x17, 0x16, 0x3e,
    0x32, 0x57, 0xa2, 0x3d, 0xd1, 0x0d, 0x84, 0xbd, 0x6d, 0x8f,
    0x04, 0xbe, 0xfd, 0xe3, 0xb9, 0xbd, 0xaf, 0xbd, 0x56, 0x3d,
    0x36, 0xa0, 0xd3, 0xbd, 0xd4, 0xdb, 0x22, 0xbc, 0x79, 0xc7,
    0x15, 0xbd, 0x98, 0xfc, 0xc2, 0x3c, 0xc3, 0x42, 0xa0, 0xbd,
    0xaa, 0xba, 0xec, 0xbc, 0xc8, 0xab, 0xa4, 0xbb, 0x9a, 0x18,
    0x99, 0xbd, 0xed, 0x96, 0xd5, 0x3d, 0x07, 0x88, 0x6d, 0xbd,
    0x00, 0x55, 0xc7, 0xbc, 0x27, 0x23, 0x92, 0xbc, 0xaa, 0x44,
    0xf3, 0xbc, 0x23, 0xdf, 0x5c, 0x3c, 0x29, 0xd0, 0x02, 0xbe,
    0x72, 0x3a, 0x4d, 0xbd, 0x0a, 0xa1, 0x46, 0xbe, 0x49, 0x74,
    0x29, 0xbd, 0x86, 0xd2, 0x10, 0xbb, 0x8b, 0x7f, 0xa5, 0xbb,
    0x65, 0xed, 0xc6, 0xbd, 0x22, 0x59, 0x10, 0xbe, 0xd3, 0x4b,
    0x55, 0xbd, 0xb7, 0x6d, 0x03, 0x3d, 0x69, 0x22, 0xbd, 0x3b,
    0xc0, 0x01, 0x18, 0x3e, 0x6a, 0xf2, 0x14, 0x3e, 0xc9, 0x08,
    0xd5, 0xbd, 0xdc, 0xd8, 0x02, 0x3e, 0x64, 0x0b, 0x32, 0x3d,
    0x6b, 0xa2, 0x06, 0xbe, 0x7d, 0xda, 0xd0, 0x3c, 0x5f, 0xfc,
    0x0b, 0xbe, 0x3b, 0x1e, 0x8f, 0xbc, 0xaa, 0xf6, 0xec, 0xbd,
    0x8b, 0xd5, 0xf2, 0xbd, 0x89, 0x9c, 0xf9, 0xbd, 0xac, 0x8f,
    0xbf, 0xbd, 0x2c, 0x5d, 0x75, 0xbd, 0x41, 0x40, 0xba, 0xbc,
    0x7a, 0xd8, 0x21, 0x3d, 0x93, 0xec, 0xab, 0xbd, 0x33, 0x4f,
    0x37, 0xbc, 0xb5, 0x18, 0x6c, 0x3c, 0x2e, 0x25, 0xb3, 0xbd,
    0x5a, 0x9a, 0x00, 0xbe, 0xdd, 0xb1, 0x34, 0xbe, 0xe3, 0x28,
    0xc3, 0x3d, 0x61, 0xad, 0x1b, 0xbe, 0x82, 0x43, 0x05, 0x3c,
    0xd3, 0x77, 0x05, 0xbe, 0xc4, 0x3b, 0x92, 0xbd, 0x60, 0x85,
    0x1f, 0xbe, 0x02, 0x4e, 0x14, 0xbe, 0xdb, 0xa7, 0xdc, 0xbd,
    0xf1, 0x4a, 0x0d, 0x3e, 0x04, 0x0c, 0x28, 0xbc, 0x0b, 0x9e,
    0xfe, 0x3d, 0x49, 0x1a, 0x00, 0x3e, 0x4d, 0xec, 0xc5, 0xbd,
    0x69, 0x58, 0x17, 0xbe, 0x13, 0x0f, 0xb3, 0x3e, 0x68, 0x7b,
    0x56, 0xbd, 0xfb, 0x06, 0x31, 0xbd, 0x58, 0x0f, 0x94, 0xbc,
    0x28, 0xcd, 0x63, 0x3c, 0x35, 0xac, 0x09, 0x3e, 0xe1, 0x21,
    0x5d, 0xbe, 0x8c, 0x63, 0xd1, 0xbd, 0x27, 0x83, 0x15, 0x3e,
    0xd2, 0xf0, 0x03, 0xbd, 0x80, 0x84, 0x2c, 0x3c, 0x84, 0x36,
    0xb5, 0x3d, 0xaf, 0x26, 0x56, 0x3d, 0x4e, 0x3e, 0x05, 0x3e,
    0xe3, 0x72, 0xcf, 0x3d, 0x29, 0x7e, 0xdd, 0x3d, 0x1f, 0x56,
    0x92, 0xbd, 0x14, 0xdd, 0x1b, 0xbd, 0xd1, 0x2f, 0x71, 0x3c,
    0x85, 0x35, 0x83, 0xbc, 0x7b, 0xaf, 0x00, 0xbe, 0x3f, 0x47,
    0xb5, 0x3d, 0xc5, 0xa3, 0x32, 0xbe, 0x3b, 0x67, 0xcb, 0xbd,
    0x46, 0x65, 0x8f, 0xbd, 0xcc, 0x89, 0xb4, 0xbc, 0x82, 0xb6,
    0x50, 0x3d, 0x98, 0x5a, 0x0d, 0x3b, 0xc5, 0xba, 0x29, 0x3d,
    0xd3, 0x8f, 0xe1, 0x3c, 0xe2, 0x8c, 0x91, 0x3d, 0x83, 0x3c,
    0xb5, 0x3d, 0xd8, 0x5a, 0xc2, 0x3e, 0x3d, 0x6e, 0xe8, 0xbc,
    0xec, 0x53, 0xf6, 0x3d, 0x2f, 0xf7, 0x8e, 0xbb, 0xae, 0x9f,
    0x6d, 0xbd, 0x7d, 0x95, 0x61, 0xbd, 0x38, 0x47, 0xe7, 0xbd,
    0xf3, 0xff, 0x99, 0xbd, 0x23, 0xd1, 0x0f, 0x3e, 0xf0, 0xde,
    0xa4, 0xbd, 0x6f, 0xea, 0x81, 0xbc, 0x68, 0xe5, 0x80, 0x3e,
    0xf0, 0x39, 0x88, 0xbc, 0xd2, 0x49, 0xcc, 0xbd, 0x31, 0x6c,
    0xa2, 0xbd, 0x78, 0x32, 0x8a, 0x3d, 0x60, 0x75, 0x7c, 0xbd,
    0x10, 0xd2, 0x97, 0xbd, 0xf9, 0xc1, 0x40, 0x3d, 0x06, 0xde,
    0x21, 0xbe, 0x4f, 0x96, 0x40, 0x3c, 0x81, 0x06, 0x06, 0xbd,
    0x15, 0x8b, 0x98, 0xbb, 0x56, 0x11, 0x76, 0xbd, 0xe2, 0x9b,
    0x91, 0x3d, 0x17, 0x74, 0xa0, 0xbd, 0x28, 0x99, 0x21, 0x3c,
    0x07, 0x91, 0xfa, 0x3d, 0x6b, 0xe8, 0x2c, 0x3d, 0x66, 0xba,
    0x13, 0x3e, 0x6e, 0x12, 0xcb, 0xbc, 0x58, 0x41, 0x61, 0xbd,
    0x4d, 0x1d, 0xb1, 0xbd, 0x0f, 0x9e, 0xab, 0xbd, 0xea, 0x42,
    0xae, 0x3d, 0xbd, 0x3e, 0x14, 0xbe, 0x30, 0x99, 0xce, 0xbd,
    0x65, 0xe5, 0xd6, 0x3d, 0x20, 0xd8, 0x74, 0xbd, 0xf6, 0x25,
    0x73, 0xbd, 0xcc, 0x60, 0x20, 0x3d, 0x61, 0xaf, 0xe2, 0x3c,
    0x68, 0x71, 0x92, 0x3c, 0x80, 0xb4, 0xa1, 0x3d, 0x01, 0xab,
    0xb1, 0x3d, 0x80, 0xf4, 0xe5, 0xbc, 0x5b, 0x77, 0xe7, 0xbd,
    0x27, 0xdc, 0x12, 0xbe, 0xd1, 0x9e, 0x84, 0x3d, 0xe2, 0xa5,
    0x9e, 0xbd, 0xe3, 0xd8, 0x70, 0xbd, 0x0c, 0x72, 0x0e, 0xbe,
    0x59, 0x4f, 0xff, 0xbc, 0x4c, 0x99, 0xa3, 0x3c, 0x84, 0x2a,
    0x2e, 0xbe, 0xb0, 0x48, 0x6e, 0xbd, 0x05, 0xfa, 0x43, 0x3e,
    0x95, 0x62, 0xff, 0xbc, 0xc0, 0xf1, 0x83, 0xbc, 0x3d, 0xf0,
    0x06, 0x3e, 0x28, 0x0f, 0x70, 0xbd, 0xcc, 0xe6, 0xef, 0x3d,
    0xfe, 0x88, 0xc4, 0xbd, 0xdd, 0x54, 0x74, 0xbd, 0xdf, 0x5f,
    0x18, 0x3e, 0xf8, 0x29, 0xa8, 0x3c, 0xcc, 0x3f, 0xcf, 0xbd,
    0x08, 0x47, 0x04, 0xbe, 0xd6, 0x70, 0xec, 0x3b, 0xdb, 0xc3,
    0x20, 0x3c, 0x7a, 0xca, 0x64, 0x3b, 0x6d, 0x78, 0x13, 0x3c,
    0xa5, 0xa8, 0x37, 0x3e, 0x4a, 0x7d, 0x16, 0xbd, 0xf2, 0x7c,
    0x2d, 0x3d, 0x00, 0xfe, 0x4c, 0x3a, 0xc4, 0xb1, 0x90, 0xbc,
    0xe1, 0x77, 0x60, 0x3e, 0xca, 0x89, 0x34, 0x3d, 0x7e, 0x72,
    0x73, 0xbd, 0x8b, 0x8e, 0xfa, 0xbc, 0x36, 0x67, 0x39, 0x3d,
    0xf0, 0x95, 0xf9, 0xbd, 0x36, 0xc6, 0x32, 0xbc, 0x19, 0xdb,
    0xea, 0xba, 0x5b, 0x4e, 0xc6, 0x3a, 0x8d, 0x2c, 0x3a, 0xbd,
    0xa8, 0xd4, 0x22, 0x3d, 0x9a, 0x0a, 0x2a, 0xbb, 0xb5, 0x51,
    0xb7, 0x3d, 0x5a, 0x66, 0x1c, 0xbd, 0xfd, 0x73, 0x52, 0x3e,
    0xc9, 0xea, 0x26, 0x3d, 0x83, 0x4a, 0x30, 0xbc, 0xa4, 0x34,
    0xd7, 0xbd, 0x3e, 0x3c, 0xaf, 0xbd, 0x5b, 0x40, 0xfd, 0xbd,
    0xae, 0x07, 0xfa, 0x3c, 0x98, 0x21, 0xaa, 0xbd, 0x2d, 0x37,
    0x17, 0xbe, 0x02, 0xfe, 0x8e, 0x3d, 0x12, 0x39, 0xdd, 0xbd,
    0x38, 0x2b, 0x86, 0xbd, 0x5c, 0xa1, 0x52, 0x3d, 0x69, 0x10,
    0x05, 0xbc, 0x91, 0xdf, 0xce, 0xbd, 0x47, 0x00, 0x1e, 0xbd,
    0x28, 0x30, 0x8b, 0x3d, 0x77, 0x10, 0xc9, 0xbc, 0x5e, 0x77,
    0x49, 0xbd, 0xe7, 0xd0, 0xf7, 0xbd, 0xa2, 0xf4, 0x54, 0x3d,
    0xea, 0xf8, 0x69, 0xbc, 0xc4, 0xbe, 0x5f, 0xbd, 0x4e, 0x22,
    0x0f, 0xbd, 0x63, 0x2d, 0x81, 0xbd, 0x20, 0x4f, 0x8b, 0x3c,
    0xee, 0x19, 0x5a, 0xbc, 0x37, 0x6b, 0x36, 0x3e, 0x7b, 0x39,
    0xa9, 0xbc, 0x5f, 0x4b, 0xd5, 0xbc, 0x07, 0xc6, 0x36, 0xbe,
    0x71, 0x30, 0x0a, 0xbe, 0x7a, 0xe8, 0xcc, 0xbc, 0x5e, 0xba,
    0xc7, 0xbd, 0x36, 0x69, 0x55, 0x3d, 0x88, 0x66, 0x49, 0xbc,
    0x3e, 0x7c, 0xe1, 0xbd, 0xe3, 0x9d, 0x14, 0x3d, 0xf8, 0x4f,
    0x7d, 0xbd, 0xd5, 0x89, 0x5a, 0x3d, 0xe2, 0x82, 0x8b, 0xbd,
    0xae, 0x3f, 0xe2, 0x3b, 0x6c, 0x39, 0x84, 0x3d, 0x9c, 0xb1,
    0x9c, 0x3d, 0xaf, 0x30, 0xa1, 0xbc, 0xa9, 0x9d, 0x18, 0xbd,
    0x06, 0x25, 0x65, 0xbe, 0xb5, 0x7e, 0xe4, 0xbd, 0xd1, 0x60,
    0x10, 0x3e, 0xd9, 0xf6, 0x18, 0xbe, 0x75, 0x27, 0x65, 0xbd,
    0xdd, 0xed, 0xe5, 0x3d, 0x28, 0x30, 0xa5, 0xbd, 0x11, 0xf2,
    0xe8, 0xbd, 0xae, 0x78, 0x78, 0xbd, 0xca, 0x24, 0x06, 0x3e,
    0xaa, 0xd1, 0x4b, 0xbd, 0x7b, 0xc6, 0x17, 0x3d, 0x14, 0x77,
    0x11, 0x3e, 0x18, 0x58, 0xc9, 0x3d, 0xd6, 0x25, 0xd6, 0xbc,
    0xd8, 0x90, 0x80, 0xbc, 0xc6, 0x40, 0x2f, 0xbe, 0x34, 0x40,
    0xb7, 0xbd, 0x95, 0x6e, 0x87, 0x3b, 0x11, 0x8f, 0x2a, 0xbe,
    0xda, 0xbd, 0xa0, 0x3d, 0x3d, 0x84, 0xcb, 0xbc, 0xea, 0xdb,
    0x36, 0x3b, 0x3a, 0x7a, 0x2e, 0x3e, 0x8a, 0x2d, 0x5a, 0xbe,
    0x63, 0xe6, 0x80, 0x3d, 0x14, 0xfc, 0xca, 0x3e, 0x09, 0x7b,
    0x14, 0xbe, 0x26, 0xf8, 0x67, 0xbd, 0x31, 0x72, 0x0f, 0xbb,
    0x3a, 0xb0, 0x5e, 0xbe, 0x8c, 0x70, 0xfc, 0xbd, 0x92, 0x8e,
    0x19, 0xbe, 0x51, 0x9f, 0x0f, 0x3d, 0xae, 0x78, 0xe1, 0x3c,
    0x44, 0xaf, 0xf6, 0xbc, 0xf0, 0xd3, 0x67, 0x3d, 0xf1, 0xbf,
    0xd4, 0x3d, 0x2b, 0x9a, 0x4c, 0xbc, 0x60, 0x39, 0x7e, 0x3d,
    0x87, 0xd7, 0x6f, 0xbe, 0xf5, 0x56, 0xbd, 0x3c, 0x3d, 0xee,
    0x5e, 0xbd, 0xe6, 0xa6, 0x97, 0xbd, 0x60, 0xb9, 0xfe, 0x3d,
    0xce, 0x3d, 0xba, 0xbd, 0x57, 0x67, 0x68, 0xbe, 0x14, 0x52,
    0xad, 0xbd, 0x04, 0x80, 0x50, 0xbe, 0xa7, 0x9f, 0xa1, 0x3d,
    0xe7, 0xa1, 0x75, 0x3b, 0x4e, 0xdf, 0xca, 0xbb, 0xc4, 0x0d,
    0x5c, 0xbd, 0x7d, 0x5b, 0x0b, 0x3e, 0xa9, 0x98, 0x87, 0x3d,
    0xef, 0x86, 0xae, 0xbd, 0xba, 0x74, 0x70, 0xbe, 0x1e, 0xf2,
    0x99, 0x3d, 0x5e, 0x33, 0xc5, 0x3e, 0x81, 0xee, 0x8e, 0xbd,
    0x5e, 0xf4, 0xb2, 0xbd, 0xaa, 0x59, 0x8e, 0xbd, 0x59, 0x0d,
    0x7d, 0xbe, 0x2e, 0xcd, 0x71, 0xbd, 0x2a, 0x5a, 0x19, 0xbe,
    0x76, 0xfd, 0x86, 0x3d, 0x37, 0x5f, 0x1e, 0x3e, 0x8b, 0xb5,
    0x9b, 0x3d, 0x35, 0xd4, 0x86, 0xbd, 0xc9, 0xa0, 0x31, 0x3d,
    0x29, 0x98, 0xf4, 0xbc, 0x59, 0xca, 0xb8, 0x3d, 0x22, 0x9a,
    0x07, 0xbe, 0x91, 0xb8, 0x89, 0x3d, 0xed, 0x49, 0xc1, 0xbd,
    0x33, 0xf8, 0xf5, 0xbd, 0xab, 0xb2, 0x85, 0x3d, 0xa1, 0x1d,
    0x45, 0xbe, 0x1d, 0x85, 0xfa, 0xbd, 0x51, 0x22, 0x10, 0xbe,
    0xcb, 0x0b, 0x12, 0xbd, 0x71, 0xd8, 0x8c, 0x3d, 0xe2, 0xad,
    0xf8, 0x3c, 0x65, 0x0f, 0x8c, 0x3d, 0x5b, 0x06, 0x76, 0xbd,
    0x52, 0xb0, 0x80, 0xbd, 0x7b, 0x31, 0x63, 0x3d, 0xe5, 0xdc,
    0xfe, 0xbd, 0xc2, 0x86, 0x16, 0xbe, 0x65, 0x6a, 0x36, 0xbe,
    0xaa, 0xfd, 0x69, 0xbc, 0x36, 0x2f, 0x2a, 0xbe, 0xb4, 0xe2,
    0x89, 0x3d, 0x37, 0x36, 0xee, 0xbd, 0xd9, 0x8d, 0xb9, 0xbd,
    0x1b, 0x7c, 0x14, 0xbe, 0x18, 0x8e, 0x2e, 0xbd, 0x28, 0xd1,
    0x0c, 0xbd, 0x74, 0x50, 0xa7, 0xbd, 0xe9, 0x77, 0x18, 0x3d,
    0xa0, 0x06, 0x1e, 0xbd, 0xde, 0xab, 0x08, 0x3b, 0x4d, 0x5e,
    0x18, 0x3c, 0xdf, 0x37, 0xa0, 0xbd, 0xc8, 0x11, 0x14, 0xbe,
    0x8a, 0x44, 0x82, 0xbd, 0x8a, 0x30, 0x7c, 0xbd, 0x7f, 0x62,
    0x52, 0xbe, 0xb1, 0x53, 0x23, 0xbe, 0x5f, 0x9d, 0xa6, 0xbd,
    0xce, 0x64, 0x20, 0xbe, 0x35, 0xc3, 0x52, 0xbd, 0x6b, 0x99,
    0x49, 0x3d, 0xe1, 0x2f, 0x32, 0x3d, 0xff, 0x4e, 0xb1, 0xbd,
    0x4a, 0x98, 0xc0, 0x3c, 0x05, 0x3e, 0x97, 0xbd, 0xc6, 0x8a,
    0xcc, 0xbc, 0x50, 0xc3, 0xa3, 0xbd, 0x9b, 0xb0, 0xcf, 0x3d,
    0xce, 0x59, 0x79, 0x3d, 0x9d, 0x77, 0xcb, 0xbd, 0xc6, 0xe5,
    0x24, 0x3e, 0xd6, 0x15, 0xdf, 0xbe, 0xec, 0x9a, 0x83, 0x3e,
    0x2b, 0xf5, 0xb9, 0x3e, 0xf8, 0xc0, 0xba, 0xbe, 0x34, 0xea,
    0x39, 0x3e, 0xb7, 0x58, 0x07, 0xbe, 0x68, 0x76, 0x0a, 0xbe,
    0xfa, 0x3f, 0xd0, 0xbd, 0xb0, 0x63, 0xa5, 0xbd, 0xa3, 0xac,
    0x2e, 0x3e, 0xe4, 0x48, 0x7a, 0xbc, 0x50, 0xbd, 0x22, 0x3e,
    0x9c, 0xee, 0x88, 0xbe, 0x68, 0xfa, 0x87, 0xbe, 0x33, 0x06,
    0x87, 0xbe, 0xff, 0x11, 0x86, 0xbe, 0xca, 0x1d, 0x85, 0xbe,
    0x96, 0x29, 0x84, 0xbe, 0x62, 0x35, 0x83, 0xbe, 0x2d, 0x41,
    0x82, 0xbe, 0xf9, 0x4c, 0x81, 0xbe, 0x01, 0x54, 0x80, 0xbe,
    0x20, 0xc9, 0x7e, 0xbe, 0x18, 0x0f, 0x7c, 0xbe, 0x4f, 0xf8,
    0x7a, 0xbe, 0xe6, 0x0f, 0x79, 0xbe, 0x7d, 0x27, 0x77, 0xbe,
    0x15, 0x3f, 0x75, 0xbe, 0xce, 0x36, 0x74, 0xbe, 0x2d, 0x87,
    0x70, 0xbe, 0xda, 0x85, 0x6f, 0xbe, 0x72, 0x9d, 0x6d, 0xbe,
    0x6a, 0xf4, 0x6a, 0xbe, 0xa0, 0xcc, 0x69, 0xbe, 0x37, 0xe4,
    0x67, 0xbe, 0xcf, 0xfb, 0x65, 0xbe, 0x66, 0x13, 0x64, 0xbe,
    0xfd, 0x2a, 0x62, 0xbe, 0x94, 0x42, 0x60, 0xbe, 0x42, 0x05,
    0x5f, 0xbe, 0xc3, 0x71, 0x5c, 0xbe, 0x1a, 0x2d, 0x5a, 0xbe,
    0x0d, 0xa2, 0x57, 0xbe, 0xf0, 0xb0, 0x56, 0xbe, 0x20, 0xd0,
    0x54, 0xbe, 0x53, 0x20, 0x53, 0xbe, 0x01, 0x65, 0x50, 0xbe,
    0xe6, 0x16, 0x4f, 0xbe, 0x7d, 0x2e, 0x4d, 0xbe, 0x14, 0x46,
    0x4b, 0xbe, 0x74, 0x1d, 0x49, 0xbe, 0x43, 0x75, 0x47, 0xbe,
    0xb6, 0x0a, 0x46, 0xbe, 0x1c, 0xb6, 0x44, 0xbe, 0x87, 0xba,
    0x41, 0xbe, 0x44, 0x80, 0x40, 0xbe, 0x04, 0x49, 0x3e, 0xbe,
    0x10, 0xd9, 0x3b, 0xbe, 0x92, 0x16, 0x3a, 0xbe, 0x26, 0x0d,
    0x38, 0xbe, 0x09, 0x01, 0x36, 0xbe, 0x8d, 0x63, 0x34, 0xbe,
    0x35, 0x24, 0x32, 0xbe, 0x5a, 0x90, 0x30, 0xbe, 0xbf, 0x40,
    0x2f, 0xbe, 0x9d, 0x49, 0x2d, 0xbe, 0x66, 0x56, 0x2a, 0xbe,
    0xbe, 0xd6, 0x28, 0xbe, 0xf5, 0xef, 0x26, 0xbe, 0x85, 0x24,
    0x25, 0xbe, 0x7c, 0x35, 0x23, 0xbe, 0xd0, 0x61, 0x21, 0xbe,
    0x2f, 0x27, 0x1f, 0xbe, 0x27, 0xf6, 0x1c, 0xbe, 0x33, 0xdf,
    0x1a, 0xbe, 0x2b, 0x1e, 0x19, 0xbe, 0x71, 0x97, 0x16, 0xbe,
    0x3e, 0x23, 0x15, 0xbe, 0x9e, 0x21, 0x13, 0xbe, 0x96, 0x79,
    0x11, 0xbe, 0x9f, 0x6f, 0x0f, 0xbe, 0x36, 0xc8, 0x0d, 0xbe,
    0xc7, 0x7a, 0x0c, 0xbe, 0xba, 0x50, 0x0a, 0xbe, 0x15, 0x6e,
    0x08, 0xbe, 0x92, 0x77, 0x06, 0xbe, 0xe3, 0x07, 0x05, 0xbe,
    0x22, 0xb6, 0x02, 0xbe, 0xf6, 0xad, 0x00, 0xbe, 0x08, 0x9a,
    0xfd, 0xbd, 0x3e, 0x68, 0xfa, 0xbd, 0x5b, 0xe0, 0xf6, 0xbd,
    0x61, 0xb7, 0xf2, 0xbd, 0xa5, 0xb3, 0xee, 0xbd, 0xc5, 0xc7,
    0xea, 0xbd, 0xa5, 0x1b, 0xe7, 0xbd, 0x6a, 0xc8, 0xe2, 0xbd,
    0xfa, 0xaf, 0xdf, 0xbd, 0xb7, 0xd2, 0xdb, 0xbd, 0xd8, 0x7e,
    0xd7, 0xbd, 0xa0, 0x25, 0xd4, 0xbd, 0xd7, 0x32, 0xd0, 0xbd,
    0xe0, 0x36, 0xcc, 0xbd, 0x61, 0xf4, 0xc8, 0xbd, 0x9f, 0x4a,
    0xc4, 0xbd, 0x22, 0xe6, 0xc0, 0xbd, 0x96, 0x78, 0xbd, 0xbd,
    0xe5, 0xc0, 0xb9, 0xbd, 0x6a, 0xad, 0xb5, 0xbd, 0xfd, 0xe3,
    0xb0, 0xbd, 0x89, 0x1c, 0xad, 0xbd, 0xd2, 0xd1, 0xa9, 0xbd,
    0x0e, 0xc3, 0xa6, 0xbd, 0x3e, 0x5c, 0xa3, 0xbd, 0x8d, 0xca,
    0x9f, 0xbd, 0x76, 0x85, 0x9b, 0xbd, 0x29, 0xaf, 0x97, 0xbd,
    0x8c, 0xee, 0x93, 0xbd, 0xbb, 0x65, 0x90, 0xbd, 0xf4, 0xc0,
    0x8b, 0xbd, 0xec, 0x9f, 0x87, 0xbd, 0x0c, 0xe0, 0x83, 0xbd,
    0xe8, 0x64, 0x80, 0xbd, 0x96, 0x27, 0x78, 0xbd, 0x9c, 0x86,
    0x70, 0xbd, 0x1f, 0xee, 0x67, 0xbd, 0xb9, 0x21, 0x61, 0xbd,
    0x94, 0xd3, 0x59, 0xbd, 0x30, 0x4e, 0x52, 0xbd, 0xe0, 0x95,
    0x4a, 0xbd, 0x14, 0xf9, 0x41, 0xbd, 0xd7, 0x4e, 0x3a, 0xbd,
    0x1e, 0x86, 0x32, 0xbd, 0x61, 0xb4, 0x2b, 0xbd, 0x0c, 0x9e,
    0x23, 0xbd, 0x0f, 0x53, 0x1b, 0xbd, 0x88, 0xaf, 0x13, 0xbd,
    0x17, 0x34, 0x0d, 0xbd, 0xf6, 0xb4, 0x07, 0xbd, 0xb1, 0xbd,
    0xff, 0xbc, 0xa0, 0xcb, 0xf0, 0xbc, 0x89, 0x4a, 0xe1, 0xbc,
    0x08, 0x66, 0xd2, 0xbc, 0xd0, 0x21, 0xc1, 0xbc, 0xc2, 0x4b,
    0xb0, 0xbc, 0x9b, 0x5f, 0xa1, 0xbc, 0xd1, 0x28, 0x92, 0xbc,
    0x3c, 0x69, 0x84, 0xbc, 0xef, 0x95, 0x65, 0xbc, 0x6a, 0xde,
    0x48, 0xbc, 0x8c, 0x05, 0x2a, 0xbc, 0xe4, 0x5e, 0x09, 0xbc,
    0x17, 0x5a, 0xd4, 0xbb, 0x27, 0x5f, 0x9f, 0xbb, 0x69, 0xe5,
    0x59, 0xbb, 0xa1, 0xbc, 0x93, 0xba, 0x21, 0x5b, 0x71, 0x3a,
    0x38, 0x48, 0x3c, 0x3b, 0xcd, 0xb4, 0x9f, 0x3b, 0x8e, 0xd6,
    0xdd, 0x3b, 0x22, 0x4c, 0x09, 0x3c, 0x1b, 0x12, 0x24, 0x3c,
    0x24, 0x6d, 0x44, 0x3c, 0x37, 0x63, 0x5d, 0x3c, 0xcb, 0x6e,
    0x7e, 0x3c, 0xa8, 0xc3, 0x8d, 0x3c, 0x22, 0xf5, 0x9b, 0x3c,
    0x4b, 0x3e, 0xad, 0x3c, 0xd0, 0xf6, 0xbb, 0x3c, 0x25, 0xc9,
    0xcb, 0x3c, 0xe4, 0xba, 0xdb, 0x3c, 0xa2, 0x32, 0xec, 0x3c,
    0xcc, 0x25, 0xfa, 0x3c, 0xcd, 0x25, 0x05, 0x3d, 0xdf, 0x1b,
    0x0d, 0x3d, 0xfd, 0x7e, 0x14, 0x3d, 0x73, 0x26, 0x1b, 0x3d,
    0x6b, 0x8c, 0x24, 0x3d, 0x65, 0x07, 0x2b, 0x3d, 0xd2, 0x84,
    0x31, 0x3d, 0x0d, 0x38, 0x3a, 0x3d, 0xd6, 0x24, 0x43, 0x3d,
    0xf5, 0x60, 0x4a, 0x3d, 0x46, 0xee, 0x52, 0x3d, 0xef, 0x26,
    0x58, 0x3d, 0x64, 0x60, 0x5f, 0x3d, 0x07, 0xe8, 0x65, 0x3d,
    0x41, 0x87, 0x6e, 0x3d, 0xfe, 0xf6, 0x76, 0x3d, 0xe5, 0x17,
    0x80, 0x3d, 0x6f, 0x54, 0x83, 0x3d, 0xbf, 0x98, 0x86, 0x3d,
    0x24, 0x32, 0x8a, 0x3d, 0x1b, 0x03, 0x8e, 0x3d, 0x78, 0x8a,
    0x92, 0x3d, 0xf7, 0x2a, 0x97, 0x3d, 0x78, 0xdc, 0x9a, 0x3d,
    0x1c, 0x83, 0x9e, 0x3d, 0xaa, 0xfa, 0xa1, 0x3d, 0xaa, 0xb3,
    0xa5, 0x3d, 0x68, 0x99, 0xa9, 0x3d, 0x8a, 0x6c, 0xad, 0x3d,
    0x8d, 0x4b, 0xb1, 0x3d, 0x41, 0xf0, 0xb4, 0x3d, 0x5e, 0x74,
    0xb8, 0x3d, 0xa3, 0x15, 0xbc, 0x3d, 0xac, 0xd2, 0xbf, 0x3d,
    0x2e, 0x8a, 0xc4, 0x3d, 0xee, 0x2f, 0xc8, 0x3d, 0x41, 0xce,
    0xcb, 0x3d, 0x96, 0x28, 0xcf, 0x3d, 0x4e, 0x46, 0xd3, 0x3d,
    0x32, 0x1a, 0xd7, 0x3d, 0x29, 0x48, 0xdb, 0x3d, 0xd7, 0x38,
    0xdf, 0x3d, 0x6a, 0xbb, 0xe2, 0x3d, 0x07, 0xc6, 0xe7, 0x3d,
    0x8e, 0x1f, 0xeb, 0x3d, 0xa2, 0xc1, 0xee, 0x3d, 0x06, 0x2e,
    0xf2, 0x3d, 0x03, 0xd0, 0xf4, 0x3d, 0xd2, 0x06, 0xf9, 0x3d,
    0x49, 0x90, 0xfd, 0x3d, 0xfe, 0xc5, 0x00, 0x3e, 0x6d, 0xdd,
    0x02, 0x3e, 0x01, 0x21, 0x05, 0x3e, 0x7e, 0xa3, 0x06, 0x3e,
    0x73, 0xb2, 0x08, 0x3e, 0x32, 0x34, 0x0a, 0x3e, 0x61, 0x26,
    0x0c, 0x3e, 0x57, 0x24, 0x0e, 0x3e, 0x46, 0xf5, 0x0f, 0x3e,
    0x15, 0x32, 0x12, 0x3e, 0x21, 0xbe, 0x13, 0x3e, 0xcd, 0x2a,
    0x16, 0x3e, 0xe8, 0xc8, 0x17, 0x3e, 0xaa, 0x49, 0x19, 0x3e,
    0x67, 0x23, 0x1b, 0x3e, 0x11, 0xd1, 0x1d, 0x3e, 0xf8, 0x5b,
    0x1e, 0x3e, 0x87, 0x56, 0x21, 0x3e, 0x7c, 0x08, 0x23, 0x3e,
    0x6a, 0x0f, 0x25, 0x3e, 0x40, 0xb9, 0x26, 0x3e, 0xfe, 0x86,
    0x28, 0x3e, 0xa4, 0x7f, 0x2a, 0x3e, 0x90, 0x94, 0x2c, 0x3e,
    0x0e, 0xc1, 0x2e, 0x3e, 0x5a, 0x63, 0x30, 0x3e, 0xf1, 0xed,
    0x32, 0x3e, 0x2b, 0x34, 0x34, 0x3e, 0xb0, 0x67, 0x36, 0x3e,
    0x06, 0x97, 0x38, 0x3e, 0x0c, 0xc6, 0x39, 0x3e, 0x30, 0xf6,
    0x3b, 0x3e, 0x11, 0x86, 0x3d, 0x3e, 0x46, 0x60, 0x3f, 0x3e,
    0x2a, 0x2b, 0x41, 0x3e, 0xf1, 0x2a, 0x44, 0x3e, 0xda, 0x5f,
    0x45, 0x3e, 0x43, 0x48, 0x47, 0x3e, 0x4a, 0x3e, 0x49, 0x3e,
    0x14, 0x19, 0x4b, 0x3e, 0x7d, 0x01, 0x4d, 0x3e, 0xd9, 0x53,
    0x4e, 0x3e, 0x4e, 0xd2, 0x50, 0x3e, 0x58, 0xc2, 0x52, 0x3e,
    0x20, 0xa3, 0x54, 0x3e, 0x55, 0x4f, 0xea, 0x97, 0x2d, 0xd6,
    0x9e, 0x58, 0x5e, 0x9b, 0x9c, 0x9f, 0xc5, 0x7b, 0x70, 0xcc,
    0x51, 0x65, 0xc7, 0x78, 0x45, 0xc2, 0x87, 0x50, 0x67, 0xa0,
    0xa8, 0x92, 0xb0, 0x7b, 0x7e, 0xa7, 0x5f, 0x6b, 0xb0, 0x93,
    0x40, 0xbe, 0x9a, 0x4a, 0x6a, 0x9b, 0xa6, 0x9d, 0x98, 0x83,
    0x86, 0xbe, 0x60, 0x5e, 0xb2, 0x9b, 0x54, 0xce, 0x8f, 0x5c,
    0x5f, 0x99, 0x98, 0x99, 0xb1, 0x82, 0x72, 0xaa, 0x53, 0x69,
    0xcf, 0x9b, 0x4e, 0xda, 0x87, 0x53, 0x66, 0xaf, 0xa2, 0xa0,
    0xb1, 0x76, 0x6c, 0xb1, 0x3b, 0x49, 0xc8, 0x94, 0x38, 0xdc,
    0xa6, 0x5a, 0x6d, 0x83, 0xa9, 0xa5, 0xa1, 0x80, 0x6f, 0xbc,
    0xc0, 0x6c, 0xc9, 0xc3, 0x8a, 0xa8, 0xd9, 0x50, 0xb1, 0x85,
    0x5f, 0x6e, 0xa4, 0xac, 0x7e, 0xbe, 0x7e, 0x8d, 0xb3, 0xbe,
    0x95, 0xae, 0xcd, 0x58, 0xaf, 0x71, 0x7c, 0x76, 0xb8, 0xa3,
    0xa8, 0xaa, 0x91, 0x8d, 0x96, 0xb6, 0x94, 0xa8, 0xdf, 0x4b,
    0xbf, 0x97, 0x6a, 0x71, 0x90, 0xad, 0x90, 0xad, 0xab, 0x7f,
    0x8a, 0xba, 0x78, 0x91, 0xe0, 0x35, 0xbb, 0x75, 0x74, 0x6d,
    0x7e, 0x9d, 0x79, 0xa4, 0x93, 0x95, 0x99, 0xb7, 0xa2, 0xac,
    0xc1, 0x51, 0xc6, 0x97, 0x69, 0x57, 0x88, 0xa3, 0x8a, 0xaf,
    0x92, 0x73, 0x97, 0xd4, 0x9c, 0xb1, 0xe4, 0x2f, 0xd4, 0x58,
    0x6b, 0x5b, 0xa2, 0xc2, 0x7d, 0xa2, 0x5a, 0xb3, 0xb3, 0x8c,
    0x9e, 0x76, 0xeb, 0x78, 0x98, 0x79, 0x49, 0x89, 0x78, 0x7f,
    0x39, 0x5c, 0x68, 0xb2, 0x94, 0x8c, 0x96, 0x7e, 0xcf, 0x7d,
    0x92, 0xa2, 0x4b, 0x77, 0x90, 0x67, 0x4d, 0x63, 0x7f, 0xaf,
    0xa2, 0x82, 0xb0, 0x74, 0xd3, 0x87, 0x95, 0x77, 0x8d, 0x54,
    0x4f, 0x6f, 0x3b, 0x64, 0x71, 0xa9, 0xb0, 0x83, 0x96, 0x61,
    0xe7, 0x72, 0xa1, 0x9f, 0x63, 0x8b, 0x7a, 0x6c, 0x51, 0x73,
    0x62, 0xa3, 0xc4, 0x9a, 0x8c, 0x7a, 0xdf, 0x63, 0x8d, 0x5f,
    0x4e, 0x61, 0x73, 0x61, 0x64, 0x6d, 0x77, 0xc2, 0x93, 0x8b,
    0x94, 0x6f, 0xdb, 0x50, 0x94, 0x8c, 0x61, 0x67, 0x70, 0x79,
    0x54, 0x68, 0x79, 0xe1, 0x9c, 0x46, 0x99, 0x88, 0x9f, 0x6d,
    0x49, 0x65, 0x6c, 0x88, 0x94, 0x42, 0x78, 0x46, 0x8e, 0xef,
    0xda, 0x5e, 0xb2, 0x66, 0x8e, 0x5f, 0x6f, 0x9d, 0x96, 0xab,
    0x99, 0x51, 0x59, 0x6b, 0x82, 0xcd, 0xaf, 0x59, 0xc4, 0x96,
    0x8f, 0x6c, 0x54, 0x8b, 0x91, 0x91, 0xa1, 0x40, 0x4d, 0x5e,
    0x42, 0xe8, 0xb4, 0x53, 0xb0, 0x7b, 0x8a, 0x61, 0x57, 0x61,
    0x95, 0xa4, 0x7b, 0x47, 0x64, 0x74, 0x58, 0xeb, 0x85, 0x61,
    0xa8, 0x88, 0x90, 0x73, 0x5f, 0xb4, 0x7f, 0x7d, 0xab, 0x5c,
    0x80, 0x60, 0x5a, 0xeb, 0x84, 0x4d, 0xa2, 0x6c, 0x8b, 0x7f,
    0x75, 0x9e, 0x6a, 0x7b, 0xa9, 0x59, 0x50, 0x50, 0x7e, 0xaf,
    0x94, 0x7f, 0x6a, 0xa1, 0x8a, 0x55, 0x68, 0x59, 0xa3, 0x7f,
    0x81, 0x7a, 0x96, 0xe7, 0x8f, 0x8c, 0x8e, 0x8f, 0x9e, 0x9a,
    0x8e, 0x45, 0x6c, 0x51, 0x9a, 0x94, 0xce, 0x83, 0x94, 0xe3,
    0x96, 0x92, 0xb4, 0xa2, 0x7b, 0x9c, 0x8a, 0x5c, 0x7f, 0x76,
    0x87, 0x9b, 0xa2, 0x74, 0x99, 0xc9, 0x84, 0xa3, 0xda, 0x9b,
    0x99, 0x99, 0x93, 0x42, 0x63, 0x49, 0xab, 0x6f, 0x94, 0x7e,
    0x91, 0xd3, 0x57, 0x98, 0x84, 0x84, 0x89, 0x9c, 0x91, 0x58,
    0x5e, 0x61, 0x90, 0x75, 0x83, 0x81, 0xab, 0xc5, 0x6e, 0x9d,
    0x76, 0x85, 0x6f, 0xa7, 0x8e, 0x73, 0x5a, 0x6b, 0x8f, 0xa4,
    0x97, 0x7c, 0x74, 0xdf, 0x7d, 0x87, 0x9b, 0x83, 0x73, 0x92,
    0x9c, 0x42, 0x87, 0x46, 0x89, 0x43, 0x56, 0x89, 0x95, 0x8c,
    0x6e, 0x92, 0x71, 0x8f, 0x6f, 0x82, 0x99, 0x39, 0x90, 0x60,
    0x83, 0x5d, 0x4b, 0x80, 0x75, 0x90, 0x80, 0x85, 0x98, 0x87,
    0x84, 0x87, 0x9f, 0x2c, 0x7c, 0x6a, 0x6c, 0x4e, 0x82, 0x73,
    0xaa, 0x74, 0xa0, 0x7f, 0x8f, 0x88, 0x86, 0x87, 0x8c, 0x51,
    0x7d, 0x4e, 0x7a, 0x59, 0x4e, 0x6c, 0x72, 0x7f, 0xa5, 0x84,
    0x9c, 0x93, 0x85, 0x8b, 0x8f, 0x28, 0x8b, 0x91, 0x82, 0x66,
    0x50, 0x8d, 0x7f, 0x87, 0x79, 0x8c, 0x9c, 0x7a, 0x67, 0x7e,
    0x96, 0x32, 0x84, 0x67, 0x87, 0x51, 0x46, 0x79, 0x81, 0x7e,
    0x55, 0x46, 0xea, 0x8b, 0x2c, 0xd6, 0xa3, 0x44, 0x57, 0xba,
    0x99, 0xac, 0xad, 0x8e, 0x67, 0xb2, 0x3f, 0x50, 0xbc, 0x94,
    0x2f, 0xe0, 0xb0, 0x58, 0x54, 0xb9, 0xa2, 0xa5, 0xa9, 0x78,
    0x64, 0xae, 0x5d, 0x52, 0xc7, 0x81, 0x32, 0xdb, 0xa7, 0x40,
    0x6b, 0xbf, 0xa1, 0x9a, 0xb6, 0x87, 0x54, 0xab, 0x4d, 0x5c,
    0xb7, 0x8c, 0x3b, 0xcb, 0x8c, 0x52, 0x77, 0x90, 0xa3, 0x9f,
    0xb2, 0x86, 0x71, 0xbc, 0x60, 0x5d, 0xb7, 0x89, 0x4d, 0xbf,
    0x8b, 0x50, 0x75, 0x8f, 0xa6, 0xa2, 0xb4, 0x8c, 0x6a, 0xb2,
    0x57, 0x63, 0xca, 0x8b, 0x3d, 0xf3, 0x8c, 0x52, 0x6b, 0xa4,
    0xab, 0xa5, 0xb1, 0x7f, 0x6e, 0xc5, 0x97, 0x87, 0x98, 0xd6,
    0x93, 0xa9, 0xcb, 0x58, 0xd8, 0x6a, 0x60, 0x7e, 0xb5, 0xc1,
    0x86, 0xaa, 0xa1, 0x8d, 0xce, 0xbf, 0x9e, 0xb5, 0xbf, 0x4e,
    0xbc, 0x8f, 0x6c, 0x6c, 0x95, 0x9b, 0x94, 0xb6, 0x87, 0x88,
    0x89, 0xc6, 0xa0, 0x98, 0xce, 0x36, 0xb3, 0x6d, 0x74, 0x6f,
    0x99, 0xaa, 0x8d, 0xac, 0x83, 0x8e, 0xc1, 0xb9, 0x9f, 0x9d,
    0xbf, 0x48, 0xbc, 0x8f, 0x75, 0x7e, 0xa4, 0xaf, 0x9c, 0xa0,
    0xab, 0x92, 0x8b, 0xc9, 0x9d, 0x9e, 0xd3, 0x55, 0xac, 0x60,
    0x7a, 0x76, 0xac, 0xbd, 0x8f, 0x9b, 0x81, 0x73, 0xa4, 0xc6,
    0x92, 0xb4, 0xdd, 0x34, 0xdd, 0x81, 0x4d, 0x5d, 0x7f, 0xc6,
    0xa0, 0xb6, 0x55, 0xb3, 0x8f, 0x86, 0xb0, 0x6b, 0xf1, 0x9f,
    0xaa, 0x98, 0x6b, 0x58, 0x75, 0x5f, 0x3f, 0x55, 0x77, 0x9f,
    0xc7, 0x7b, 0xab, 0x61, 0xde, 0x92, 0x7c, 0x7a, 0x6f, 0x69,
    0x61, 0x67, 0x4f, 0x3e, 0x4e, 0xb4, 0x79, 0x82, 0xb0, 0x67,
    0xe6, 0x53, 0x91, 0x9a, 0x54, 0x84, 0x9d, 0x65, 0x66, 0x58,
    0x5f, 0xbd, 0x7a, 0x84, 0xab, 0x82, 0xf2, 0x5b, 0x90, 0x6c,
    0x6c, 0x42, 0x80, 0x6b, 0x5a, 0x54, 0x74, 0xaa, 0xb8, 0x94,
    0xc2, 0x8c, 0xe9, 0x77, 0x86, 0x69, 0x75, 0x66, 0x5d, 0x77,
    0x52, 0x80, 0x61, 0xb5, 0x78, 0x7e, 0xb1, 0x86, 0xdc, 0x70,
    0x99, 0x8f, 0x46, 0x40, 0x6a, 0x57, 0x49, 0x50, 0x66, 0xf2,
    0xbc, 0x59, 0xa1, 0x69, 0x8c, 0xa3, 0x48, 0xa1, 0x65, 0x90,
    0x83, 0x48, 0x54, 0x73, 0x77, 0xea, 0xa8, 0x4c, 0xd2, 0x67,
    0x9c, 0x72, 0x69, 0xa1, 0x7a, 0x7e, 0x7a, 0x50, 0x4a, 0x55,
    0x67, 0xea, 0x81, 0x46, 0xb5, 0x64, 0x95, 0x63, 0x74, 0xb6,
    0xa7, 0x79, 0xa3, 0x60, 0x6c, 0x71, 0x88, 0xdc, 0xad, 0x4b,
    0xc3, 0x61, 0x8d, 0xa6, 0x62, 0x8b, 0x66, 0x94, 0xb0, 0x54,
    0x83, 0x5d, 0x52, 0xd3, 0xd1, 0x4b, 0xb1, 0x81, 0x94, 0x92,
    0x7f, 0x72, 0xa5, 0x7a, 0x88, 0x62, 0x59, 0x4b, 0x51, 0xef,
    0xd0, 0x50, 0xba, 0x64, 0x8e, 0x52, 0x59, 0x6c, 0xa9, 0x85,
    0x72, 0x3b, 0x6d, 0x6b, 0x48, 0x8c, 0xad, 0x93, 0x9f, 0xa5,
    0x9b, 0x47, 0x5d, 0x54, 0xb8, 0x97, 0x8f, 0x7e, 0x7a, 0xcc,
    0x96, 0x9e, 0x77, 0x89, 0x78, 0xbf, 0x8b, 0x7b, 0x72, 0x67,
    0x8e, 0x89, 0x6c, 0x75, 0x94, 0xce, 0x5c, 0xa5, 0x80, 0x8e,
    0x8a, 0x95, 0x91, 0x62, 0x74, 0x4c, 0xbe, 0x71, 0xaa, 0x86,
    0x87, 0xe6, 0x96, 0x97, 0x74, 0x86, 0x71, 0xb6, 0x91, 0x68,
    0x74, 0x96, 0x93, 0xaa, 0x75, 0x74, 0x8f, 0xdc, 0x7c, 0xbb,
    0xa4, 0x8a, 0x84, 0xa6, 0x88, 0x56, 0x79, 0x59, 0x8c, 0x76,
    0x8a, 0x68, 0x7d, 0xdb, 0x78, 0xa6, 0xb5, 0x8e, 0x76, 0x9d,
    0x90, 0x29, 0x7f, 0x87, 0x89, 0x8f, 0x9a, 0x6b, 0xb5, 0xca,
    0x99, 0x98, 0x65, 0x7d, 0x4e, 0x8b, 0xa3, 0x52, 0x7b, 0x6a,
    0x66, 0x5c, 0x45, 0x76, 0x9a, 0x8a, 0x83, 0x71, 0x85, 0x84,
    0xb3, 0x81, 0xa4, 0x43, 0x7e, 0x6d, 0x90, 0x66, 0x3f, 0x88,
    0x90, 0x96, 0x76, 0x97, 0x91, 0x7c, 0x55, 0x71, 0x94, 0x59,
    0x84, 0x4c, 0xb0, 0x7b, 0x71, 0x99, 0x7c, 0x88, 0x6a, 0x91,
    0xa0, 0x8a, 0x83, 0x80, 0x93, 0x4e, 0x76, 0x7d, 0x77, 0x61,
    0x6a, 0x8a, 0xb0, 0x8e, 0x7a, 0x79, 0x88, 0x76, 0x58, 0x8b,
    0x91, 0x68, 0x7c, 0x61, 0x80, 0x6a, 0x84, 0x8f, 0x9b, 0x8d,
    0x9a, 0x7a, 0x8b, 0x8e, 0x96, 0x8f, 0x93, 0x50, 0x75, 0x8a,
    0x7c, 0x40, 0x80, 0x77, 0x89, 0x89, 0xc7, 0xb0, 0x6a, 0x82,
    0xa9, 0x3d, 0xaf, 0xa6, 0xae, 0x91, 0x56, 0x67, 0x4f, 0xb5,
    0xa6, 0x3b, 0xc9, 0xa1, 0x42, 0x79, 0xa9, 0x42, 0x9a, 0xb1,
    0xa4, 0x9e, 0x61, 0x6e, 0x4d, 0xac, 0x97, 0x1b, 0xc3, 0xa3,
    0x51, 0x7c, 0xaa, 0x45, 0x7d, 0xb7, 0x99, 0x97, 0x66, 0x5f,
    0x67, 0xa9, 0xa7, 0x2d, 0xbd, 0xa1, 0x5c, 0x98, 0xa6, 0x53,
    0x8f, 0xaf, 0x92, 0x9a, 0x5f, 0x69, 0x61, 0xa8, 0x9f, 0x31,
    0xb5, 0xaf, 0x61, 0x80, 0xa1, 0x37, 0xb6, 0xb5, 0x98, 0xb5,
    0x62, 0x67, 0x5f, 0xa2, 0xa2, 0x28, 0xc8, 0xa5, 0x76, 0x89,
    0xb3, 0x53, 0x73, 0xa9, 0x93, 0x9e, 0x63, 0x55, 0x4a, 0xc5,
    0xa6, 0x22, 0x78, 0x57, 0x6a, 0x35, 0xbc, 0xae, 0x58, 0x70,
    0x8d, 0x6b, 0x9a, 0x8d, 0x62, 0x9d, 0x90, 0x7a, 0x70, 0x6f,
    0x66, 0x5a, 0x96, 0x71, 0x4d, 0x93, 0x91, 0x69, 0x9c, 0x81,
    0x81, 0x8e, 0x9e, 0x62, 0xa6, 0x91, 0x8a, 0x40, 0x9b, 0xab,
    0x50, 0x8c, 0x4d, 0x8b, 0x9c, 0x8c, 0x88, 0x9c, 0x99, 0x73,
    0x63, 0x60, 0x77, 0x5f, 0x9a, 0x82, 0x4c, 0x80, 0x76, 0x7a,
    0xa2, 0x9c, 0x79, 0x96, 0x94, 0x89, 0x99, 0x92, 0xa9, 0x57,
    0x89, 0xa1, 0x76, 0x7c, 0x8a, 0x7e, 0x87, 0x9b, 0x90, 0x99,
    0xa0, 0x76, 0x7d, 0x76, 0x97, 0x6c, 0x9d, 0x81, 0x7d, 0x93,
    0x86, 0xa0, 0xa6, 0x90, 0x6d, 0x8a, 0x86, 0x6e, 0x85, 0xa4,
    0x9c, 0x8b, 0x91, 0xce, 0x29, 0x9c, 0x9a, 0x80, 0xbb, 0x99,
    0x8d, 0xa6, 0xcd, 0xb0, 0x87, 0x77, 0x5c, 0xae, 0x7e, 0xcf,
    0x72, 0x92, 0x65, 0x9f, 0xae, 0x9e, 0x9f, 0xa0, 0xcb, 0x8a,
    0xb4, 0x8b, 0xb3, 0x9e, 0x65, 0xbe, 0x39, 0x76, 0x7b, 0x94,
    0x91, 0x8b, 0x92, 0x7e, 0xcf, 0xb6, 0xbc, 0x85, 0x75, 0xab,
    0x6e, 0xab, 0x3d, 0x9b, 0x81, 0x82, 0xa6, 0x98, 0x81, 0xaf,
    0xb7, 0x90, 0xb5, 0xa7, 0x6d, 0x81, 0x7d, 0xa6, 0x36, 0xa2,
    0x6d, 0xaf, 0xb6, 0x8a, 0x8c, 0xa2, 0x9b, 0xcd, 0x9f, 0x80,
    0x91, 0x84, 0x65, 0x8c, 0x35, 0x75, 0xa1, 0x8d, 0xac, 0x7a,
    0x8b, 0xb4, 0xbf, 0x94, 0x93, 0x79, 0x93, 0x9a, 0x72, 0xa9,
    0x87, 0x76, 0x85, 0x92, 0x8c, 0x86, 0x5c, 0xb9, 0x9e, 0xa4,
    0x9f, 0x8e, 0x56, 0x82, 0x82, 0xa1, 0x7b, 0x5a, 0x86, 0x8e,
    0xb5, 0x58, 0x66, 0xb0, 0xb6, 0xa5, 0x91, 0x62, 0x70, 0xb3,
    0x72, 0xb4, 0x7f, 0x81, 0x86, 0xbb, 0xae, 0x64, 0x6c, 0x99,
    0xa9, 0x96, 0xb7, 0x5a, 0x7c, 0x8f, 0x77, 0xc3, 0x68, 0x64,
    0x9f, 0x98, 0x92, 0x83, 0x5b, 0xc9, 0xb9, 0xb9, 0x82, 0x6a,
    0x95, 0x76, 0x6c, 0xb5, 0x6f, 0x67, 0xad, 0x61, 0xbb, 0x91,
    0x87, 0xc3, 0x98, 0xcc, 0xa0, 0x72, 0x5c, 0x92, 0xa5, 0xc2,
    0x79, 0x7d, 0x94, 0x91, 0xab, 0x73, 0x6e, 0xc9, 0xba, 0xc7,
    0x93, 0x37, 0x57, 0x9b, 0xb9, 0xa0, 0x9d, 0x8a, 0xb8, 0xb9,
    0xb5, 0x79, 0x54, 0xcb, 0xa1, 0xae, 0xba, 0x3c, 0x55, 0x88,
    0xa3, 0xa0, 0x8e, 0x69, 0xc2, 0x97, 0xcb, 0x75, 0x62, 0xa9,
    0x77, 0x6f, 0x88, 0x40, 0x67, 0x7b, 0xc0, 0x7f, 0x95, 0xab,
    0xc1, 0xa8, 0x9a, 0xa8, 0x6b, 0x94, 0xa8, 0xac, 0x9d, 0x49,
    0x54, 0xa7, 0x92, 0x70, 0xb0, 0x95, 0x8e, 0x7c, 0xa4, 0x66,
    0x4d, 0xa5, 0x86, 0x8b, 0x92, 0x68, 0x5d, 0x84, 0xa8, 0x9b,
    0x9c, 0x98, 0xa7, 0xb8, 0x96, 0x7a, 0x82, 0x8e, 0x83, 0xa1,
    0xa2, 0x3e, 0x6a, 0x9c, 0x98, 0xb2, 0x9d, 0xb5, 0x90, 0xc1,
    0xa3, 0x9c, 0x5b, 0xc6, 0xb2, 0x6f, 0xbf, 0x97, 0x44, 0x8f,
    0xb9, 0xfe, 0xa1, 0x71, 0xaf, 0x95, 0x89, 0x31, 0x4f, 0xe4,
    0x9e, 0xa5, 0xbf, 0xdf, 0x7a, 0x93, 0x82, 0xe1, 0x9f, 0x8f,
    0xbe, 0x94, 0x65, 0x3e, 0x73, 0xa9, 0x83, 0xd9, 0xab, 0xb2,
    0x4d, 0xa1, 0x8c, 0xf3, 0xa5, 0x66, 0x86, 0x8a, 0x8d, 0x73,
    0x47, 0xb6, 0x89, 0x93, 0x92, 0xc7, 0x50, 0x82, 0xcc, 0xf0,
    0x98, 0x6f, 0x85, 0x70, 0x97, 0x59, 0x68, 0xeb, 0x8c, 0xd9,
    0xb6, 0xd6, 0x94, 0x7d, 0x73, 0xf6, 0x8e, 0x8e, 0xa0, 0x9a,
    0x94, 0x47, 0x64, 0xeb, 0x7a, 0xaf, 0x9d, 0xba, 0x6e, 0xa5,
    0xb5, 0xe9, 0x93, 0x9f, 0xa3, 0xa9, 0x6c, 0x41, 0x5f, 0xdc,
    0x85, 0xef, 0x76, 0x8b, 0x61, 0x11, 0x77, 0x29, 0xaf, 0xc5,
    0x6f, 0x42, 0xc2, 0xb0, 0x60, 0x46, 0x65, 0x9e, 0x7b, 0xa8,
    0x7c, 0x43, 0x87, 0x72, 0x60, 0xb3, 0x5a, 0x67, 0xc5, 0xb2,
    0x70, 0x5e, 0x6c, 0x8f, 0x6b, 0xaf, 0x61, 0x30, 0x55, 0x49,
    0xbb, 0xbb, 0x91, 0x57, 0xc8, 0xa1, 0x89, 0x5b, 0x50, 0x9e,
    0x53, 0xc4, 0x50, 0x1f, 0x78, 0x5d, 0x5d, 0xb4, 0x54, 0x6f,
    0xc4, 0xa8, 0x7f, 0x74, 0x6e, 0xa3, 0x8c, 0xa3, 0x70, 0x39,
    0x72, 0x52, 0x5c, 0xb1, 0x7d, 0x57, 0xc2, 0xad, 0x82, 0x4a,
    0x5f, 0x94, 0x5f, 0x91, 0x4f, 0x09, 0x76, 0x69, 0xaf, 0xc1,
    0x51, 0x46, 0xcb, 0xaa, 0x6b, 0x44, 0x7e, 0x9e, 0x79, 0x9f,
    0x93, 0x4f, 0x53, 0x40, 0x9c, 0xed, 0x9c, 0x8d, 0xbc, 0x98,
    0x76, 0x82, 0x73, 0xb1, 0xa6, 0x91, 0x83, 0x4d, 0x75, 0x6b,
    0x59, 0xdf, 0x80, 0x85, 0xb3, 0x9d, 0x82, 0x6b, 0x63, 0x94,
    0xa9, 0xb6, 0x95, 0x81, 0x6d, 0x6d, 0xa6, 0xc5, 0x98, 0xa3,
    0xae, 0xa6, 0x79, 0x64, 0x60, 0x70, 0xc4, 0xa2, 0x6f, 0x86,
    0x69, 0x45, 0x8a, 0xbe, 0x90, 0x74, 0x95, 0x96, 0x93, 0x71,
    0x51, 0xa5, 0x78, 0xa2, 0x78, 0x7a, 0x6e, 0x5b, 0x51, 0xbe,
    0x77, 0x75, 0xa0, 0xa6, 0x92, 0x45, 0x75, 0x76, 0x92, 0x9f,
    0x93, 0x4d, 0x65, 0x40, 0xa1, 0xdd, 0x95, 0x83, 0xaf, 0xa2,
    0x89, 0x4f, 0x81, 0x8c, 0x67, 0x8a, 0x93, 0xb5, 0x89, 0x7e,
    0x54, 0x9a, 0x72, 0x8d, 0xb3, 0xc6, 0x9e, 0x85, 0xa1, 0x90,
    0x7a, 0x9c, 0x7d, 0x7c, 0x95, 0xb0, 0x85, 0xb4, 0xb8, 0x7d,
    0xb8, 0x9d, 0x95, 0x86, 0x88, 0x8b, 0xa7, 0x93, 0x6f, 0x9e,
    0x5c, 0x5f, 0x7f, 0xca, 0x9f, 0x77, 0xc7, 0xa9, 0x98, 0xad,
    0x7a, 0x6b, 0xa4, 0x95, 0x71, 0x88, 0x72, 0x8c, 0x53, 0xab,
    0xa8, 0x6a, 0xba, 0x8c, 0xa2, 0x99, 0xa0, 0x7f, 0x71, 0xb2,
    0x7e, 0xbf, 0x7b, 0x60, 0xa1, 0xc3, 0xa5, 0x85, 0x9c, 0xa2,
    0x9c, 0x81, 0x9b, 0xac, 0x93, 0x8e, 0x6e, 0x7b, 0xa1, 0x8d,
    0x63, 0xb6, 0x5f, 0xa2, 0xb5, 0xad, 0xa2, 0x9a, 0x8b, 0xb3,
    0x5e, 0x95, 0x94, 0xaf, 0x45, 0x80, 0x54, 0xc4, 0x5d, 0x71,
    0xa2, 0xd7, 0x9e, 0xa1, 0x9d, 0x8e, 0x7b, 0x79, 0x89, 0x55,
    0x78, 0x8b, 0x5f, 0xb7, 0x64, 0x7e, 0xb9, 0x97, 0xa0, 0x5a,
    0x76, 0xb6, 0x9c, 0x5a, 0x8a, 0x83, 0x5f, 0xa5, 0xba, 0x9c,
    0x61, 0xaa, 0x8a, 0xbc, 0xa8, 0x85, 0x64, 0xab, 0x7c, 0x77,
    0xa0, 0x83, 0x70, 0xbd, 0x6a, 0xcb, 0x7b, 0x97, 0x8b, 0xa9,
    0xb1, 0xad, 0x90, 0x8d, 0x62, 0x8f, 0x82, 0x6b, 0x3f, 0x76,
    0x6b, 0xad, 0x9f, 0x84, 0xb1, 0xb4, 0xaf, 0xa6, 0x9d, 0xaf,
    0x99, 0x7b, 0x86, 0x89, 0x8d, 0xb6, 0x79, 0xaf, 0x88, 0xa8,
    0xab, 0xc6, 0xb1, 0x62, 0x82, 0xaf, 0xa2, 0x98, 0xa7, 0x6d,
    0x78, 0x97, 0x80, 0xde, 0x80, 0x98, 0xa4, 0x9d, 0x99, 0x8c,
    0x6c, 0x74, 0xbf, 0x86, 0xae, 0x83, 0xa3, 0x83, 0x66, 0xb1,
    0x70, 0x85, 0x6b, 0xac, 0x9d, 0x72, 0xab, 0x94, 0x82, 0x90,
    0x91, 0x9d, 0x58, 0x79, 0xaa, 0xc0, 0xae, 0x95, 0xa8, 0xb6,
    0xb1, 0xa0, 0x8c, 0x49, 0xad, 0x84, 0x8e, 0x92, 0xa3, 0x68,
    0x70, 0xd0, 0x9e, 0xa0, 0x70, 0x9c, 0xa1, 0x86, 0xb8, 0xa0,
    0xa9, 0x8f, 0x9d, 0x96, 0x59, 0x95, 0x79, 0x87, 0x76, 0x75,
    0x58, 0xbf, 0xa8, 0x90, 0x74, 0x49, 0x9c, 0x89, 0x90, 0xa1,
    0x5d, 0x8b, 0x51, 0xcd, 0xb4, 0xb6, 0x7f, 0xa7, 0x9a, 0x6c,
    0x76, 0x5a, 0x6f, 0x8b, 0xc0, 0x4f, 0x97, 0x77, 0x8f, 0xce,
    0x6a, 0xd0, 0x94, 0xca, 0xde, 0x5a, 0x8a, 0x4a, 0xb2, 0x74,
    0xad, 0x52, 0xa7, 0x5b, 0x3b, 0xd9, 0x64, 0xa8, 0x9c, 0xdb,
    0xcf, 0x74, 0xaa, 0x44, 0x7d, 0x95, 0xad, 0x75, 0x7f, 0x4a,
    0x98, 0x9f, 0x7d, 0xc3, 0xb2, 0xdd, 0xc9, 0x6e, 0xad, 0x6b,
    0x75, 0x6e, 0xc9, 0x79, 0x72, 0x7c, 0x7d, 0xb2, 0x3b, 0xb7,
    0x99, 0xe8, 0xda, 0x55, 0xb4, 0x92, 0x99, 0x90, 0xcc, 0x76,
    0x6b, 0x5f, 0x76, 0xc2, 0x60, 0xa6, 0xb5, 0xcc, 0xd9, 0x7a,
    0xb3, 0x98, 0x4d, 0x56, 0x93, 0x74, 0x98, 0x5c, 0x4b, 0xa7,
    0x45, 0xbd, 0xc1, 0xcd, 0xd4, 0x59, 0x88, 0x49, 0xdf, 0xb6,
    0x52, 0xb3, 0xb5, 0x7a, 0x82, 0xa2, 0x9a, 0x83, 0x56, 0x5e,
    0x65, 0xbd, 0xcd, 0x2b, 0xb7, 0x8c, 0x80, 0xba, 0xb5, 0x98,
    0xbe, 0xad, 0xa3, 0xa7, 0x58, 0x68, 0x66, 0xc6, 0xa6, 0x47,
    0xc7, 0xa3, 0x90, 0xb9, 0xad, 0x59, 0x73, 0xa5, 0x9e, 0x92,
    0x66, 0x6b, 0x77, 0xd1, 0xb1, 0x59, 0xb3, 0xa1, 0x58, 0xb1,
    0x9d, 0x87, 0xaa, 0xa1, 0x98, 0x9b, 0x6c, 0x5b, 0x80, 0xd1,
    0xb5, 0x4e, 0xd5, 0x92, 0x66, 0x9d, 0xb1, 0x60, 0x6a, 0xa0,
    0xa7, 0xa4, 0x5a, 0x5a, 0x7b, 0xd3, 0xc0, 0x31, 0xe6, 0x75,
    0x9b, 0xb2, 0xaf, 0x94, 0xb0, 0x86, 0xc1, 0xaf, 0x55, 0x64,
    0x80, 0xbd, 0xc1, 0x45, 0xb2, 0x83, 0x52, 0xa2, 0x89, 0xc5,
    0x6d, 0x72, 0xa9, 0x6c, 0x72, 0x84, 0x7a, 0x95, 0xad, 0x79,
    0x76, 0x46, 0x7f, 0x86, 0x97, 0xbc, 0x7b, 0x86, 0xa7, 0x60,
    0x87, 0x86, 0x69, 0x9c, 0x9e, 0xa7, 0x9d, 0x49, 0x8d, 0x8f,
    0xb3, 0xb0, 0xa5, 0x9c, 0x82, 0x86, 0x8c, 0x71, 0x54, 0xbc,
    0x85, 0x85, 0x72, 0x5c, 0x63, 0x73, 0x9d, 0x9d, 0x72, 0x86,
    0x74, 0x9b, 0x87, 0x78, 0x90, 0x71, 0x9e, 0xc2, 0x99, 0x4a,
    0xa4, 0x6e, 0x7b, 0xb5, 0x79, 0x95, 0xa0, 0x6a, 0x98, 0x7f,
    0x5b, 0x9d, 0x70, 0x96, 0x8f, 0x3e, 0x9e, 0x7c, 0xa3, 0x93,
    0xa4, 0x6d, 0x67, 0x95, 0x7a, 0x86, 0x67, 0xa5, 0x86, 0xaf,
    0xa9, 0xa5, 0x67, 0xa1, 0x96, 0x6f, 0x76, 0x8b, 0x62, 0xb3,
    0xa9, 0x74, 0x65, 0xad, 0x89, 0x9b, 0x76, 0xa7, 0xa1, 0xa3,
    0x88, 0xb9, 0x75, 0x88, 0xae, 0x73, 0xa9, 0x5b, 0x8a, 0x8f,
    0x95, 0xa3, 0xb1, 0x9b, 0x8a, 0x7d, 0x96, 0x73, 0x84, 0x7a,
    0xb3, 0xb3, 0x74, 0x6e, 0x8c, 0xa4, 0xa1, 0x94, 0x9d, 0x83,
    0x7b, 0x74, 0x6e, 0xbc, 0x84, 0x85, 0x9c, 0x91, 0x82, 0x96,
    0x73, 0xaa, 0x89, 0x79, 0x75, 0x7a, 0x61, 0x96, 0x75, 0x9e,
    0x84, 0xa1, 0xb4, 0x9f, 0xb2, 0x94, 0x81, 0xa6, 0xc6, 0xa4,
    0xcb, 0x8a, 0x9f, 0x98, 0x5a, 0x8f, 0x58, 0x7a, 0x5f, 0x69,
    0x7d, 0x98, 0x7f, 0xa2, 0xc8, 0xbf, 0x9f, 0x5e, 0x9b, 0xb1,
    0x63, 0x9a, 0x8f, 0x78, 0x78, 0x97, 0x9e, 0x68, 0x8f, 0xbd,
    0xc3, 0xba, 0x80, 0x50, 0x84, 0x96, 0x9e, 0xa0, 0xaa, 0x97,
    0x93, 0x5d, 0x9e, 0x6f, 0x64, 0x90, 0xda, 0xaa, 0xa4, 0x94,
    0x5f, 0x81, 0xa3, 0xb5, 0x6a, 0x59, 0x9d, 0x61, 0xc1, 0x5f,
    0x56, 0x8f, 0xc6, 0xc2, 0xac, 0x6c, 0xaa, 0x9b, 0x77, 0xb9,
    0xb7, 0x73, 0xa7, 0x7d, 0xbd, 0x87, 0x8c, 0x9e, 0xb6, 0x7e,
    0xc9, 0x93, 0x8d, 0x6d, 0x88, 0xa3, 0x9f, 0x63, 0xad, 0xa9,
    0xb6, 0x6a, 0x8b, 0x95, 0xbb, 0x80, 0xa5, 0x83, 0x8d, 0x9c,
    0xb7, 0x90, 0x85, 0x65, 0xb7, 0x68, 0x7b, 0x74, 0x77, 0x85,
    0xbd, 0x9b, 0x7b, 0x60, 0x89, 0x87, 0x99, 0xb7, 0xd0, 0x56,
    0xbc, 0xa1, 0xb9, 0x5d, 0x5d, 0xa2, 0x8a, 0x77, 0xb8, 0x51,
    0x98, 0x76, 0xac, 0x7e, 0xb9, 0x79, 0x96, 0xaf, 0xaa, 0x73,
    0x57, 0xc2, 0x98, 0xca, 0x9f, 0x57, 0x55, 0x9a, 0xb1, 0xbd,
    0xbe, 0x59, 0xae, 0x62, 0xb9, 0x73, 0x73, 0x9d, 0x77, 0x9d,
    0xaf, 0x43, 0x8a, 0x89, 0xbe, 0x85, 0xb6, 0x96, 0xd2, 0x61,
    0x9a, 0x5c, 0x86, 0x89, 0xa0, 0x91, 0x7d, 0x56, 0xa1, 0x8a,
    0x7c, 0xb1, 0xc3, 0x5a, 0xa1, 0x59, 0xa7, 0x8c, 0x5b, 0x9e,
    0xa4, 0x74, 0xcb, 0x5d, 0x9f, 0xb1, 0x9d, 0xa3, 0xe4, 0x7d,
    0xb7, 0x80, 0xc7, 0x86, 0x82, 0x9a, 0xa8, 0x70, 0xcb, 0xa6,
    0x9a, 0xd4, 0xa5, 0xd6, 0x9b, 0x84, 0xb4, 0x61, 0x82, 0x49,
    0x57, 0xcb, 0x88, 0xbb, 0xa7, 0xb0, 0x9b, 0xb0, 0xc1, 0xd4,
    0xa6, 0x5c, 0xc4, 0x69, 0x5d, 0x3c, 0x6b, 0xf0, 0xac, 0xc9,
    0x8b, 0x84, 0x9e, 0x7a, 0xae, 0xbb, 0x98, 0x81, 0xb1, 0x97,
    0x5c, 0x38, 0x69, 0xfc, 0x97, 0xd2, 0x70, 0xa5, 0x81, 0xc2,
    0x7b, 0xd0, 0xab, 0x47, 0x96, 0x85, 0x5d, 0x42, 0x6e, 0xe9,
    0xa1, 0x94, 0x81, 0x8b, 0x4a, 0xad, 0xd2, 0xd3, 0xc7, 0x81,
    0xcd, 0x5e, 0x64, 0x51, 0x76, 0xcd, 0xaf, 0xbd, 0xa6, 0x91,
    0x7e, 0xc0, 0x96, 0xf3, 0xd2, 0x79, 0xdf, 0x6f, 0x71, 0x48,
    0x70, 0xac, 0xbf, 0xbf, 0x6d, 0x8e, 0x84, 0x37, 0x54, 0x87,
    0x9d, 0x9c, 0x2d, 0x4f, 0xbe, 0xc0, 0x85, 0x44, 0x51, 0xa2,
    0x48, 0x71, 0x80, 0x4e, 0x4d, 0xb1, 0xc4, 0x96, 0x6b, 0x56,
    0xb9, 0xb8, 0x91, 0x4f, 0x4f, 0xca, 0x75, 0x82, 0x79, 0x3f,
    0x4a, 0x90, 0x91, 0x95, 0x5a, 0x61, 0xb9, 0xb1, 0x87, 0x47,
    0x67, 0xb6, 0x77, 0x6f, 0x77, 0x54, 0x2f, 0xb4, 0xb9, 0x94,
    0x51, 0x5c, 0xbc, 0xb5, 0x90, 0x38, 0x66, 0xc7, 0x73, 0x83,
    0x80, 0x57, 0x4b, 0xaa, 0xa8, 0x90, 0x55, 0x68, 0xbc, 0xbe,
    0x8e, 0x61, 0x51, 0xb7, 0x6f, 0x8b, 0x8a, 0x2f, 0x22, 0x94,
    0x8f, 0x9a, 0x3c, 0x69, 0xc4, 0xc1, 0x8f, 0x43, 0x5e, 0xb6,
    0xae, 0xa5, 0x70, 0xa0, 0x43, 0x81, 0xa5, 0xb3, 0xa6, 0x8c,
    0x89, 0xa3, 0x86, 0x79, 0x59, 0xaf, 0xa9, 0xa0, 0x8e, 0xad,
    0x75, 0x70, 0xba, 0xbc, 0xd4, 0xa5, 0x96, 0x92, 0x85, 0x98,
    0x6c, 0xbb, 0x98, 0x8f, 0x82, 0xb5, 0x8a, 0x94, 0x8f, 0xc8,
    0xae, 0x8a, 0x85, 0x8c, 0x7b, 0x6d, 0x71, 0xb1, 0xa8, 0x9e,
    0x67, 0xb7, 0x65, 0x8a, 0x9b, 0xc8, 0x8b, 0x91, 0x8d, 0x85,
    0x85, 0x69, 0x7a, 0x8c, 0x77, 0x9c, 0x7b, 0xa9, 0x6a, 0x64,
    0x9a, 0xb8, 0xab, 0x72, 0x8b, 0x93, 0x8b, 0x88, 0x6c, 0xb2,
    0x7d, 0xb5, 0x68, 0x8b, 0x7b, 0x83, 0x96, 0xbe, 0x7c, 0xa3,
    0x89, 0x94, 0x87, 0x89, 0x74, 0x9a, 0x8a, 0xd8, 0xa2, 0x92,
    0x62, 0x82, 0xa8, 0xcd, 0x6d, 0x91, 0xbd, 0x9d, 0x99, 0x60,
    0x8f, 0x91, 0x92, 0xa4, 0x76, 0x9b, 0x65, 0x66, 0xb8, 0xbb,
    0x7f, 0x70, 0x95, 0xae, 0x87, 0x8e, 0xa7, 0x7c, 0xaa, 0xac,
    0x77, 0x91, 0xa4, 0x81, 0xb1, 0xa7, 0xbb, 0x88, 0x87, 0xb2,
    0x92, 0x59, 0x76, 0x90, 0x6f, 0x97, 0x80, 0x98, 0x72, 0x71,
    0xaa, 0xc1, 0x7e, 0x8b, 0x98, 0xac, 0x94, 0x78, 0x71, 0x73,
    0xae, 0xc5, 0x78, 0xad, 0x89, 0x49, 0xaa, 0xbd, 0x92, 0x88,
    0x97, 0x9d, 0x9d, 0x73, 0x92, 0x91, 0x6f, 0xc5, 0xb7, 0x7c,
    0x63, 0x50, 0x99, 0xe2, 0xc0, 0x61, 0x9d, 0xb7, 0xa0, 0x75,
    0x96, 0x6c, 0xa7, 0xd8, 0x75, 0x6a, 0x6c, 0x9a, 0xa2, 0xd0,
    0x82, 0xb0, 0x90, 0xc7, 0xa7, 0x85, 0x41, 0x92, 0x86, 0xa0,
    0x94, 0x6a, 0x4b, 0x85, 0x8f, 0xc5, 0x5d, 0xb6, 0xc5, 0xd2,
    0xae, 0x5d, 0x5b, 0x9e, 0x93, 0xd8, 0xbc, 0x5d, 0x63, 0x9d,
    0x9f, 0xbf, 0x9a, 0xb0, 0xbd, 0xae, 0x94, 0x6a, 0x4d, 0x8c,
    0x6a, 0xc0, 0x85, 0x5f, 0x99, 0x79, 0xb7, 0xad, 0x82, 0x7b,
    0xbf, 0xca, 0xb0, 0x61, 0x65, 0x6f, 0x53, 0xba, 0xbe, 0x8b,
    0x61, 0xb3, 0x91, 0x9d, 0x6e, 0x9f, 0x9a, 0xca, 0xab, 0x73,
    0x67, 0x80, 0x76, 0xc2, 0x9d, 0x82, 0x5c, 0xa2, 0xb9, 0xd2,
    0x5a, 0x88, 0x98, 0xb6, 0xb8, 0x56, 0x3d, 0x6e, 0x87, 0xaa,
    0xc5, 0x88, 0x8b, 0x70, 0xa4, 0xdd, 0x93, 0x9a, 0x9f, 0xb2,
    0xaf, 0x63, 0x79, 0x9e, 0x87, 0xaf, 0xb6, 0x91, 0x69, 0x87,
    0xa9, 0xaf, 0x9d, 0xa7, 0x83, 0xa2, 0xb4, 0x5b, 0x5e, 0x96,
    0x9f, 0x9d, 0xa5, 0xb7, 0x52, 0x7f, 0x97, 0xc4, 0x75, 0xa8,
    0x6d, 0xb9, 0xa5, 0x74, 0x61, 0xa8, 0x7e, 0x84, 0x9f, 0x89,
    0x63, 0x66, 0x92, 0xa3, 0x77, 0x83, 0x89, 0xae, 0xbf, 0x6d,
    0x72, 0x8a, 0xb1, 0xb3, 0x8d, 0xaf, 0x9c, 0x5f, 0x81, 0xb6,
    0xa4, 0x8d, 0x91, 0xaa, 0xb1, 0x5b, 0x9d, 0x7a, 0x54, 0xa4,
    0xc6, 0x90, 0x46, 0x58, 0xb9, 0xb7, 0x9f, 0x9a, 0x7e, 0xac,
    0xb7, 0x51, 0x8f, 0x98, 0xaa, 0x8b, 0xc6, 0x83, 0x5d, 0x37,
    0x6d, 0xab, 0x39, 0xbe, 0x9a, 0xda, 0xda, 0x6f, 0x61, 0x79,
    0x66, 0x97, 0x9d, 0x6a, 0x63, 0x68, 0x7d, 0xce, 0x48, 0xda,
    0xb0, 0xda, 0xf5, 0x49, 0xa1, 0x6f, 0xa1, 0x7f, 0xf4, 0x53,
    0x8f, 0x47, 0x78, 0xbf, 0x69, 0xbe, 0xaf, 0xed, 0xf9, 0x6b,
    0xad, 0x8d, 0x85, 0x9b, 0xd3, 0x7a, 0x7e, 0x32, 0x8b, 0xd4,
    0x86, 0xc8, 0x95, 0xe4, 0xd5, 0x70, 0x73, 0x6f, 0x91, 0x7f,
    0xcd, 0x7b, 0x9f, 0x66, 0x78, 0xb2, 0x60, 0xaa, 0xba, 0xe4,
    0xbc, 0x57, 0x77, 0x61, 0x8e, 0x82, 0xd5, 0x5e, 0x6e, 0x6f,
    0x85, 0xb3, 0x83, 0xa5, 0xc1, 0xf6, 0xcd, 0x3d, 0x82, 0x7a,
    0x56, 0x94, 0x4e, 0x30, 0x56, 0x54, 0xb8, 0xc4, 0x45, 0x47,
    0xc3, 0xa4, 0x6f, 0x21, 0x55, 0x98, 0x6d, 0xa1, 0x49, 0x41,
    0x94, 0x55, 0x81, 0xbb, 0x63, 0x72, 0xb8, 0x9b, 0x6f, 0x3f,
    0x4f, 0xa2, 0x6a, 0x9e, 0x62, 0x26, 0x96, 0x91, 0x63, 0xb7,
    0x60, 0x3e, 0xc1, 0xa2, 0x73, 0x52, 0x6c, 0xa3, 0x82, 0xa8,
    0x69, 0x3e, 0x85, 0x4c, 0x69, 0xc2, 0x9d, 0x3f, 0xbe, 0xaf,
    0x69, 0x4d, 0x5c, 0x75, 0x60, 0x9d, 0x59, 0x14, 0x81, 0x81,
    0x80, 0xb5, 0x71, 0x62, 0xbe, 0xaa, 0x6f, 0x64, 0x4f, 0xa1,
    0x9c, 0x95, 0x51, 0x1e, 0x75, 0x6c, 0x9a, 0xb2, 0x7e, 0x59,
    0xcd, 0xb0, 0x6f, 0x29, 0x52, 0x86, 0xb6, 0xa4, 0x9a, 0x41,
    0x61, 0x47, 0x7a, 0xd6, 0x8b, 0x67, 0xb4, 0xad, 0x80, 0x52,
    0x8f, 0x7e, 0x8d, 0x8d, 0x94, 0x67, 0x41, 0x5a, 0xaf, 0xb2,
    0x86, 0x8c, 0xa2, 0x9e, 0x79, 0x56, 0x8c, 0x72, 0x69, 0xac,
    0x93, 0x4e, 0x41, 0x87, 0x86, 0xc3, 0x6e, 0x8f, 0xa6, 0x96,
    0xa0, 0x7f, 0x74, 0xb1, 0x5f, 0x9c, 0x9d, 0x4c, 0x3f, 0x82,
    0x97, 0xc6, 0x56, 0x89, 0xa5, 0xa0, 0x80, 0x4a, 0x73, 0x84,
    0x92, 0xc5, 0x8b, 0x67, 0x5f, 0x81, 0x6c, 0xd5, 0x75, 0x76,
    0xbc, 0x91, 0x86, 0x63, 0x88, 0x8c, 0x79, 0xc5, 0x8a, 0x7a,
    0x82, 0x5c, 0x99, 0xc7, 0x8f, 0x81, 0xae, 0xa5, 0x81, 0x4c,
    0x4a, 0x7f, 0xb1, 0xb6, 0x7a, 0xa9, 0x78, 0x6a, 0x95, 0xa3,
    0x71, 0x6b, 0x9f, 0xbe, 0x91, 0x8b, 0x72, 0xa8, 0x9d, 0x74,
    0x88, 0x9f, 0x90, 0x5d, 0x6b, 0xa7, 0xb8, 0xaf, 0xbe, 0xbb,
    0x8f, 0x99, 0x8d, 0xa9, 0x65, 0x7a, 0x98, 0x9b, 0x73, 0x9a,
    0x65, 0x8e, 0xa2, 0x7b, 0xc8, 0xa2, 0x94, 0x8f, 0xa5, 0x7e,
    0x78, 0xbf, 0xa0, 0xa2, 0x67, 0x4f, 0x51, 0xcf, 0x6c, 0x85,
    0xa9, 0xaa, 0xaa, 0x76, 0x7b, 0x97, 0x80, 0xa7, 0xab, 0x8e,
    0xb0, 0x76, 0x6f, 0x9c, 0x93, 0x72, 0xc2, 0xaa, 0x8b, 0xa8,
    0x7a, 0xa0, 0xca, 0xc1, 0x76, 0x7d, 0x73, 0x61, 0x96, 0x9a,
    0x9f, 0xa6, 0xb2, 0x9d, 0xa0, 0x86, 0xb1, 0xaa, 0x5f, 0x99,
    0xa3, 0xa0, 0x64, 0x76, 0x64, 0xd6, 0x81, 0xb3, 0x94, 0xa4,
    0xae, 0xab, 0x6e, 0xb6, 0x9c, 0x8b, 0x85, 0x90, 0x76, 0x7b,
    0x6c, 0x9f, 0x6e, 0x9b, 0x8b, 0xc8, 0x9a, 0x8c, 0x64, 0x85,
    0xae, 0x6b, 0x74, 0x83, 0x6e, 0x6f, 0x99, 0x9a, 0xa5, 0x9d,
    0xbe, 0xbb, 0xa1, 0x85, 0x70, 0x8d, 0x6f, 0x87, 0x88, 0x8e,
    0x8b, 0x88, 0x9d, 0xc2, 0xa4, 0x8f, 0xba, 0xc0, 0xa4, 0xb5,
    0x59, 0x89, 0xaf, 0x69, 0xa0, 0x83, 0x98, 0xa4, 0xa9, 0x8e,
    0x96, 0x86, 0xb4, 0xbf, 0xbb, 0x72, 0x54, 0xa7, 0x9f, 0x88,
    0x87, 0x99, 0x52, 0xba, 0xb2, 0xa4, 0x8a, 0x92, 0x9a, 0xcc,
    0x90, 0x83, 0x9a, 0xc9, 0x66, 0x78, 0x88, 0x95, 0x66, 0x7e,
    0x6d, 0xa8, 0x9b, 0xae, 0x74, 0xae, 0xb1, 0x90, 0x7c, 0x80,
    0xaa, 0x7a, 0x99, 0x7b, 0x75, 0x73, 0x68, 0xa8, 0x9d, 0x8e,
    0x64, 0x9d, 0xa7, 0x56, 0x8b, 0x53, 0x9e, 0x9d, 0xbd, 0x95,
    0x96, 0x74, 0x86, 0xa1, 0xb1, 0xbe, 0x7d, 0x98, 0xc6, 0x5e,
    0x76, 0x5c, 0xbb, 0x98, 0x9f, 0x57, 0xa3, 0xa0, 0x4b, 0xca,
    0x6f, 0xb5, 0x86, 0xa4, 0xb1, 0x96, 0x76, 0x7a, 0xba, 0x84,
    0x9c, 0x5e, 0xae, 0x6b, 0x87, 0xc7, 0xbb, 0x80, 0x7e, 0x87,
    0x99, 0x79, 0x78, 0x7d, 0x74, 0x92, 0x80, 0x9e, 0x6e, 0x9c,
    0x98, 0xa7, 0xac, 0x8b, 0x8e, 0xa5, 0xb5, 0x49, 0x66, 0x64,
    0x66, 0x81, 0xba, 0x69, 0x99, 0x40, 0x67, 0xbe, 0x6c, 0xd6,
    0xb5, 0xc6, 0xc0, 0x3b, 0xa9, 0x62, 0x6a, 0x67, 0xce, 0x6d,
    0x84, 0x63, 0x6d, 0xa9, 0x94, 0xd6, 0x9d, 0xb1, 0xde, 0x85,
    0xa0, 0x5c, 0x94, 0x8b, 0xd8, 0x85, 0x7f, 0x55, 0x65, 0xb9,
    0x79, 0x99, 0xae, 0xe0, 0xd2, 0x72, 0xc8, 0x55, 0x6c, 0x74,
    0xc2, 0x7b, 0x52, 0x7e, 0x8e, 0xa4, 0x3e, 0x9f, 0xa4, 0xc9,
    0xc2, 0x5a, 0x77, 0x7b, 0x8a, 0x5d, 0xca, 0x51, 0xa7, 0x52,
    0x8f, 0xda, 0x95, 0xb5, 0xb3, 0xce, 0xdf, 0x64, 0xb1, 0x89,
    0x87, 0x89, 0xa1, 0x92, 0xa2, 0x6c, 0x83, 0xdd, 0x78, 0xd5,
    0x86, 0xc2, 0xf1, 0x61, 0x6f, 0x64, 0x4f, 0xb0, 0x5c, 0x0b,
    0x99, 0x41, 0x79, 0xb9, 0x7a, 0x41, 0xc7, 0xb0, 0x64, 0x4b,
    0x26, 0x93, 0x8c, 0xb0, 0x5e, 0x42, 0x64, 0x8f, 0xaa, 0xaa,
    0x51, 0x4f, 0xc0, 0x91, 0x6a, 0x67, 0x72, 0x7d, 0x64, 0xbc,
    0x51, 0x4b, 0x8e, 0x3d, 0x65, 0xcd, 0x55, 0x5b, 0xb5, 0xa6,
    0x6b, 0x55, 0x69, 0x7e, 0x75, 0xa4, 0x57, 0x30, 0x72, 0x48,
    0x79, 0xb4, 0x85, 0x46, 0xb3, 0xa6, 0x78, 0x59, 0x70, 0xac,
    0x8c, 0x9c, 0x68, 0x00, 0x7a, 0x7f, 0x63, 0xb1, 0x58, 0x5d,
    0xab, 0xa6, 0x77, 0x2a, 0x50, 0x80, 0x47, 0xa8, 0x60, 0x32,
    0x76, 0x68, 0x92, 0xbc, 0x87, 0x6a, 0xcb, 0xb7, 0x70, 0x4b,
    0x69, 0x9a, 0x6b, 0xa2, 0x76, 0x75, 0x63, 0x8b, 0x72, 0xd3,
    0x51, 0x9f, 0xbe, 0xa1, 0x81, 0x40, 0x5b, 0x70, 0xad, 0xd0,
    0x7d, 0x62, 0x72, 0x71, 0x66, 0xe4, 0x60, 0x9e, 0xa1, 0x9c,
    0x85, 0x69, 0x71, 0x94, 0x98, 0xbe, 0x79, 0x63, 0x43, 0x51,
    0x7f, 0xc9, 0xaa, 0x6c, 0x94, 0xa1, 0x94, 0x69, 0x9b, 0x71,
    0x5f, 0x9e, 0x9e, 0x72, 0x84, 0x54, 0x79, 0xaf, 0x91, 0x90,
    0xaf, 0x98, 0x7f, 0x7a, 0x77, 0xa5, 0xa4, 0xbf, 0x8d, 0x4d,
    0x74, 0x4c, 0x88, 0xd3, 0x76, 0x95, 0xb6, 0x9d, 0x8b, 0x81,
    0x68, 0x7b, 0x66, 0x88, 0x87, 0x53, 0x68, 0x78, 0x87, 0xdd,
    0x96, 0x81, 0xa3, 0xa7, 0x80, 0x68, 0x58, 0x98, 0x98, 0xa1,
    0x7b, 0xa4, 0xb6, 0x6f, 0x79, 0xc3, 0x7d, 0xab, 0xbb, 0xaa,
    0x99, 0x87, 0xa5, 0xc8, 0xb2, 0x67, 0x96, 0x69, 0x93, 0x7d,
    0x9a, 0xa7, 0x70, 0x97, 0xa4, 0x98, 0x9e, 0x83, 0x6b, 0x76,
    0x95, 0x7a, 0x87, 0x76, 0x96, 0x75, 0x76, 0xb4, 0xa5, 0x84,
    0xa1, 0xa0, 0x8a, 0x72, 0x83, 0xa3, 0x8e, 0x97, 0xa6, 0x73,
    0xbd, 0x8f, 0x83, 0x91, 0x88, 0x9c, 0xac, 0x9a, 0x7f, 0x69,
    0x7b, 0x7b, 0xac, 0x63, 0x87, 0x81, 0x7e, 0x8e, 0x74, 0xc0,
    0x75, 0x8b, 0xbe, 0xa1, 0xb0, 0x81, 0xaa, 0xa6, 0x9b, 0x75,
    0x8b, 0x8b, 0x71, 0xa1, 0x77, 0xdb, 0x9c, 0x7b, 0xc0, 0xa1,
    0x9c, 0x93, 0x79, 0xa8, 0xb6, 0x74, 0x69, 0xb1, 0x83, 0x7f,
    0xaf, 0xaa, 0x6e, 0x74, 0xb2, 0xbd, 0xab, 0x91, 0x83, 0x7a,
    0x76, 0x96, 0xab, 0x9a, 0x4b, 0x6e, 0x68, 0xb6, 0xa6, 0x7e,
    0xba, 0xaf, 0x9a, 0xa7, 0x92, 0x93, 0x7c, 0x63, 0x86, 0x70,
    0x57, 0xa0, 0x58, 0x8f, 0x6e, 0x7d, 0xa0, 0xc2, 0xa0, 0x86,
    0xa5, 0xc4, 0xb2, 0x9d, 0xa8, 0x7a, 0x72, 0x8b, 0x78, 0xa5,
    0xc1, 0xa1, 0x8d, 0xc7, 0xa3, 0x8c, 0x70, 0xb0, 0xb1, 0x67,
    0xa9, 0x88, 0x73, 0x89, 0xa0, 0xb3, 0x5c, 0xb1, 0xad, 0xad,
    0xbb, 0xbd, 0x62, 0x87, 0xa3, 0x5f, 0x8a, 0x6a, 0x6b, 0x80,
    0x99, 0xbe, 0xad, 0x96, 0x9b, 0xaf, 0xb3, 0x71, 0x6e, 0x9a,
    0x87, 0x7e, 0xa5, 0x6b, 0x5a, 0x83, 0x68, 0xa6, 0xaa, 0xbd,
    0x72, 0x9d, 0x90, 0x74, 0x75, 0x66, 0xa6, 0x7e, 0x94, 0x76,
    0x6c, 0x67, 0x66, 0xcf, 0x60, 0x90, 0x7a, 0x9b, 0xad, 0x8c,
    0xb7, 0x58, 0x7d, 0x78, 0x90, 0x70, 0x82, 0x53, 0x9b, 0xa6,
    0xba, 0x86, 0x8a, 0xa3, 0x9d, 0x81, 0x98, 0x70, 0xc6, 0xab,
    0x99, 0xa9, 0x99, 0x66, 0x9a, 0xc3, 0x91, 0x7f, 0x97, 0xa7,
    0xbd, 0x7f, 0x86, 0x60, 0x92, 0x8f, 0x7b, 0x5b, 0x72, 0x52,
    0x6a, 0x9d, 0x77, 0xa6, 0x7e, 0x9e, 0xc2, 0x7f, 0x9d, 0x88,
    0x73, 0x82, 0x8a, 0x76, 0x87, 0x67, 0x93, 0xcd, 0xad, 0xb2,
    0x79, 0xa4, 0xaa, 0x7d, 0x9c, 0x68, 0x61, 0x5f, 0x9f, 0x7f,
    0xaa, 0x89, 0x86, 0xcc, 0x64, 0xcc, 0xb6, 0xe4, 0xbb, 0x4f,
    0x85, 0x9d, 0x68, 0x64, 0xac, 0x5c, 0xa0, 0x57, 0x96, 0xd3,
    0x67, 0xb7, 0xbf, 0xdf, 0xc7, 0x56, 0xaf, 0xa3, 0x61, 0x78,
    0xc3, 0x93, 0x5f, 0x95, 0x7f, 0xdf, 0x56, 0xad, 0x74, 0xbb,
    0xd1, 0x5e, 0x9f, 0x69, 0x73, 0x64, 0xa2, 0x55, 0x79, 0x47,
    0x68, 0xab, 0x8f, 0xc3, 0x9e, 0xbd, 0xe0, 0x5a, 0x8a, 0x58,
    0x8e, 0x83, 0x95, 0x6f, 0x6a, 0x89, 0x93, 0xb8, 0x68, 0xa1,
    0x93, 0xb3, 0xe1, 0x43, 0x9b, 0x8c, 0x9c, 0x98, 0xd9, 0x8d,
    0x78, 0x3d, 0x90, 0xe6, 0x43, 0xcc, 0x9b, 0xe4, 0xdd, 0x56,
    0x86, 0x67, 0xcb, 0xc4, 0x40, 0x86, 0xa7, 0x51, 0x6e, 0xb0,
    0x9b, 0xa7, 0x72, 0x5a, 0x42, 0x98, 0x9d, 0x1d, 0xbd, 0xc1,
    0x57, 0x87, 0xa5, 0x51, 0xa2, 0xb7, 0xa8, 0xa0, 0x7f, 0x60,
    0x44, 0xa3, 0x91, 0x2e, 0xbb, 0xb2, 0x6e, 0x82, 0xa7, 0x2c,
    0x8a, 0xbe, 0x9e, 0xa7, 0x85, 0x5a, 0x50, 0xa3, 0xa1, 0x10,
